{
  "version": "1.0",
  "truncation": null,
  "padding": null,
  "added_tokens": [
    {
      "id": 0,
      "content": "<|endoftext|>",
      "single_word": false,
      "lstrip": false,
      "rstrip": false,
      "normalized": false,
      "special": true
    }
  ],
  "normalizer": null,
  "pre_tokenizer": {
    "type": "ByteLevel",
    "add_prefix_space": false,
    "trim_offsets": true,
    "use_regex": true
  },
  "post_processor": null,
  "decoder": {
    "type": "ByteLevel",
    "add_prefix_space": true,
    "trim_offsets": true,
    "use_regex": true
  },
  "model": {
    "type": "BPE",
    "dropout": null,
    "unk_token": null,
    "continuing_subword_prefix": null,
    "end_of_word_suffix": null,
    "fuse_unk": false,
    "byte_fallback": false,
    "ignore_merges": false,
    "vocab": {
      "<|endoftext|>": 0,
      "!": 1,
      "\"": 2,
      "#": 3,
      "$": 4,
      "%": 5,
      "&": 6,
      "'": 7,
      "(": 8,
      ")": 9,
      "*": 10,
      "+": 11,
      ",": 12,
      "-": 13,
      ".": 14,
      "/": 15,
      "0": 16,
      "1": 17,
      "2": 18,
      "3": 19,
      "4": 20,
      "5": 21,
      "6": 22,
      "7": 23,
      "8": 24,
      "9": 25,
      ":": 26,
      ";": 27,
      "<": 28,
      "=": 29,
      ">": 30,
      "?": 31,
      "@": 32,
      "A": 33,
      "B": 34,
      "C": 35,
      "D": 36,
      "E": 37,
      "F": 38,
      "G": 39,
      "H": 40,
      "I": 41,
      "J": 42,
      "K": 43,
      "L": 44,
      "M": 45,
      "N": 46,
      "O": 47,
      "P": 48,
      "Q": 49,
      "R": 50,
      "S": 51,
      "T": 52,
      "U": 53,
      "V": 54,
      "W": 55,
      "X": 56,
      "Y": 57,
      "Z": 58,
      "[": 59,
      "\\": 60,
      "]": 61,
      "^": 62,
      "_": 63,
      "`": 64,
      "a": 65,
      "b": 66,
      "c": 67,
      "d": 68,
      "e": 69,
      "f": 70,
      "g": 71,
      "h": 72,
      "i": 73,
      "j": 74,
      "k": 75,
      "l": 76,
      "m": 77,
      "n": 78,
      "o": 79,
      "p": 80,
      "q": 81,
      "r": 82,
      "s": 83,
      "t": 84,
      "u": 85,
      "v": 86,
      "w": 87,
      "x": 88,
      "y": 89,
      "z": 90,
      "{": 91,
      "|": 92,
      "}": 93,
      "~": 94,
      "¡": 95,
      "¢": 96,
      "£": 97,
      "¤": 98,
      "¥": 99,
      "¦": 100,
      "§": 101,
      "¨": 102,
      "©": 103,
      "ª": 104,
      "«": 105,
      "¬": 106,
      "®": 107,
      "¯": 108,
      "°": 109,
      "±": 110,
      "²": 111,
      "³": 112,
      "´": 113,
      "µ": 114,
      "¶": 115,
      "·": 116,
      "¸": 117,
      "¹": 118,
      "º": 119,
      "»": 120,
      "¼": 121,
      "½": 122,
      "¾": 123,
      "¿": 124,
      "Â": 125,
      "Ã": 126,
      "Ä": 127,
      "Å": 128,
      "Ç": 129,
      "È": 130,
      "É": 131,
      "Ê": 132,
      "Ë": 133,
      "Ì": 134,
      "Î": 135,
      "Ï": 136,
      "Ð": 137,
      "Ñ": 138,
      "Ô": 139,
      "Õ": 140,
      "Ø": 141,
      "Ù": 142,
      "Ú": 143,
      "Ü": 144,
      "Ý": 145,
      "à": 146,
      "á": 147,
      "â": 148,
      "ã": 149,
      "ä": 150,
      "å": 151,
      "æ": 152,
      "ç": 153,
      "è": 154,
      "é": 155,
      "ê": 156,
      "ì": 157,
      "í": 158,
      "ï": 159,
      "ð": 160,
      "ĉ": 161,
      "Ċ": 162,
      "Ġ": 163,
      "Ģ": 164,
      "ģ": 165,
      "Ĥ": 166,
      "ĥ": 167,
      "Ħ": 168,
      "ħ": 169,
      "Ĩ": 170,
      "ĩ": 171,
      "Ī": 172,
      "ī": 173,
      "Ĭ": 174,
      "ĭ": 175,
      "Į": 176,
      "į": 177,
      "İ": 178,
      "ı": 179,
      "Ĳ": 180,
      "ĳ": 181,
      "Ĵ": 182,
      "ĵ": 183,
      "Ķ": 184,
      "ķ": 185,
      "ĸ": 186,
      "Ĺ": 187,
      "ĺ": 188,
      "Ļ": 189,
      "ļ": 190,
      "Ľ": 191,
      "ľ": 192,
      "Ŀ": 193,
      "ŀ": 194,
      "Ł": 195,
      "ł": 196,
      "Ń": 197,
      "à¤": 198,
      "à¥": 199,
      "Ġà¤": 200,
      "Ġt": 201,
      "Ġa": 202,
      "he": 203,
      "à¤¾": 204,
      "in": 205,
      "à¥į": 206,
      "er": 207,
      "Ġthe": 208,
      "on": 209,
      "à¤°": 210,
      "re": 211,
      "Ġo": 212,
      "à¥ĩ": 213,
      "at": 214,
      "an": 215,
      "à¤¿": 216,
      "Ġs": 217,
      "en": 218,
      "ed": 219,
      "is": 220,
      "es": 221,
      "al": 222,
      "it": 223,
      "Ġc": 224,
      "Ġw": 225,
      "Ġof": 226,
      "or": 227,
      "Ġan": 228,
      "Ġà¤ķ": 229,
      "à¤Ĥ": 230,
      "ar": 231,
      "à¤¤": 232,
      "à¤¨": 233,
      "à¥Ģ": 234,
      "Ġin": 235,
      "ic": 236,
      "Ġf": 237,
      "Ġp": 238,
      "Ġb": 239,
      "Ġand": 240,
      "ion": 241,
      "à¤ķ": 242,
      "à¤¯": 243,
      "ĠA": 244,
      "ro": 245,
      "ing": 246,
      "Ġm": 247,
      "as": 248,
      "à¥ĭ": 249,
      "Ġto": 250,
      "le": 251,
      "Ġd": 252,
      "à¤¸": 253,
      "Ġà¤¸": 254,
      "Ġh": 255,
      "ou": 256,
      "à¤²": 257,
      "Ġà¤¹": 258,
      "ent": 259,
      "Ġà¤®": 260,
      "à¤µ": 261,
      "à¤®": 262,
      "st": 263,
      "il": 264,
      "ol": 265,
      "om": 266,
      "à¤¦": 267,
      "Ġre": 268,
      "Ġe": 269,
      "ct": 270,
      "à¥Ī": 271,
      "Ġl": 272,
      "Ġà¤ª": 273,
      "ĠT": 274,
      "el": 275,
      "Ġth": 276,
      "à¤¹": 277,
      "Ġn": 278,
      "à¥ģ": 279,
      "Ġ(": 280,
      "ĠS": 281,
      "ation": 282,
      "ly": 283,
      "ch": 284,
      "et": 285,
      "im": 286,
      "us": 287,
      "Ġ1": 288,
      "ur": 289,
      "id": 290,
      "am": 291,
      "iv": 292,
      "à¤ª": 293,
      "ĠC": 294,
      "à¥¤": 295,
      "à¤Ĺ": 296,
      "à¥ĩà¤Ĥ": 297,
      "ce": 298,
      "Ġis": 299,
      "ra": 300,
      "ot": 301,
      "ut": 302,
      "Ġas": 303,
      "Ġà¤µ": 304,
      "Ġfor": 305,
      "un": 306,
      "à¤ľ": 307,
      "ig": 308,
      "Ġbe": 309,
      "Ġà¤ľ": 310,
      "Ġg": 311,
      "ad": 312,
      "ist": 313,
      "à¤·": 314,
      "ĠM": 315,
      "Ġon": 316,
      "ith": 317,
      "ul": 318,
      "ir": 319,
      "Ġà¤ħ": 320,
      "ĠI": 321,
      "ers": 322,
      "ĠB": 323,
      "Ġal": 324,
      "ĠThe": 325,
      "th": 326,
      "à¤¶": 327,
      "Ġst": 328,
      "her": 329,
      "ow": 330,
      "Ġcon": 331,
      "à¥Ĥ": 332,
      "Ġwas": 333,
      "à¤Ł": 334,
      "ĠP": 335,
      "em": 336,
      "ĠH": 337,
      "Ġwith": 338,
      "ver": 339,
      "um": 340,
      "os": 341,
      "Ġby": 342,
      "Ġthat": 343,
      "Ġà¤¨": 344,
      "est": 345,
      "Ġà¤¬": 346,
      "à¥ĭà¤Ĥ": 347,
      "à¤§": 348,
      "and": 349,
      "op": 350,
      "Ġwh": 351,
      "Ġà¤¦": 352,
      "Ġpro": 353,
      "Ġà¤°": 354,
      "ter": 355,
      "à¤¬": 356,
      "à¤¥": 357,
      "Ġà¤Ń": 358,
      "Ġ2": 359,
      "ies": 360,
      "Ġor": 361,
      "od": 362,
      "'s": 363,
      "ĠE": 364,
      "ag": 365,
      "à¤£": 366,
      "Ġare": 367,
      "av": 368,
      "if": 369,
      "ay": 370,
      "ĠL": 371,
      "Ġ\"": 372,
      "ĠG": 373,
      "rom": 374,
      "Ġde": 375,
      "ate": 376,
      "Ġà¤Ķ": 377,
      "Ġv": 378,
      "ab": 379,
      "ĠR": 380,
      "res": 381,
      "Ġit": 382,
      "Ġà¤Ķà¤°": 383,
      "Ġsu": 384,
      "ĠW": 385,
      "Ġcom": 386,
      "pp": 387,
      "ian": 388,
      "à¥Īà¥¤": 389,
      "oun": 390,
      "ĠĊ": 391,
      "à¤¡": 392,
      "ĠN": 393,
      "ac": 394,
      "00": 395,
      "ud": 396,
      "Ġ19": 397,
      "à¤ļ": 398,
      "Ġà¤Ĺ": 399,
      "Ġat": 400,
      "Ġfrom": 401,
      "ĠF": 402,
      "Ġà¤²": 403,
      "Ġex": 404,
      "ain": 405,
      "ort": 406,
      "ĠD": 407,
      "ity": 408,
      "oc": 409,
      "ical": 410,
      "Ġà¤ī": 411,
      "ri": 412,
      "Ġhe": 413,
      "og": 414,
      "ant": 415,
      "qu": 416,
      "ĠIn": 417,
      "ld": 418,
      "Ġmo": 419,
      "Ġà¤ĩ": 420,
      "pe": 421,
      "Ġà¤Ĩ": 422,
      "ia": 423,
      "ich": 424,
      "Ġà¤¯": 425,
      "ial": 426,
      "Ġhis": 427,
      "à¤ĸ": 428,
      "Ġà¤¶": 429,
      "ive": 430,
      "âĢ": 431,
      "ated": 432,
      "Ġse": 433,
      "Ġà¤¤": 434,
      "ill": 435,
      "ess": 436,
      "à¤Ń": 437,
      "à¤°à¤¤": 438,
      "ĠU": 439,
      "à¤¼": 440,
      "à¥Īà¤Ĥ": 441,
      "Ġr": 442,
      "ĠO": 443,
      "gh": 444,
      "ment": 445,
      "Ġun": 446,
      "pt": 447,
      "ĠJ": 448,
      "Ġus": 449,
      "Ġà¤ı": 450,
      "art": 451,
      "se": 452,
      "ther": 453,
      "ĠAl": 454,
      "igh": 455,
      "ard": 456,
      "ber": 457,
      "Ġwhich": 458,
      "ure": 459,
      "ell": 460,
      "ak": 461,
      "du": 462,
      "ĠAn": 463,
      "ary": 464,
      "ong": 465,
      "ew": 466,
      "cl": 467,
      "end": 468,
      "ave": 469,
      "all": 470,
      "ph": 471,
      "Ġch": 472,
      "à¤ı": 473,
      "ction": 474,
      "Ġà¤ªà¤°": 475,
      "ere": 476,
      "),": 477,
      "ang": 478,
      "ous": 479,
      "ear": 480,
      "ast": 481,
      "Ġar": 482,
      "Ġnot": 483,
      "rit": 484,
      "Ġwere": 485,
      "our": 486,
      "Ġle": 487,
      "ip": 488,
      "ult": 489,
      "ans": 490,
      "à¥ĥ": 491,
      "Ġwor": 492,
      "up": 493,
      "ect": 494,
      "The": 495,
      "Ġab": 496,
      "mer": 497,
      "Ġcomp": 498,
      "Ġhave": 499,
      "red": 500,
      "oll": 501,
      "Ġ20": 502,
      "iz": 503,
      "Ġcont": 504,
      "so": 505,
      "ĠK": 506,
      "ine": 507,
      "ish": 508,
      "ass": 509,
      "per": 510,
      "à¤Ī": 511,
      "ome": 512,
      "Ġà¤ĩà¤¸": 513,
      "cc": 514,
      "ions": 515,
      "ru": 516,
      "ov": 517,
      "der": 518,
      "Ġhas": 519,
      "ations": 520,
      "ence": 521,
      "Ġint": 522,
      "ates": 523,
      "Ġsh": 524,
      "ight": 525,
      "ĠSt": 526,
      "act": 527,
      "ge": 528,
      "Ġalso": 529,
      "ore": 530,
      "Ġits": 531,
      "ame": 532,
      "ry": 533,
      "ount": 534,
      "Ġà¤ıà¤ķ": 535,
      "Ġpl": 536,
      "ff": 537,
      "Ġk": 538,
      "ater": 539,
      "ally": 540,
      "ib": 541,
      "Ġà¤ļ": 542,
      "Ġtheir": 543,
      "olog": 544,
      "à¤¾à¤Ĥ": 545,
      "age": 546,
      "Ġhad": 547,
      "Ġad": 548,
      "ree": 549,
      "ide": 550,
      "ap": 551,
      "ub": 552,
      "ĠUn": 553,
      "Ġwhe": 554,
      "à¤ģ": 555,
      "Ġother": 556,
      "Ġà¤¥": 557,
      "clud": 558,
      "any": 559,
      "à¥Īà¤Ĥà¥¤": 560,
      "Ġy": 561,
      "ire": 562,
      "ory": 563,
      "ks": 564,
      "ace": 565,
      "ely": 566,
      "pl": 567,
      "Ġapp": 568,
      "ould": 569,
      "Ġbut": 570,
      "âĢĵ": 571,
      "ign": 572,
      "irst": 573,
      "Ġen": 574,
      "Ġim": 575,
      "fer": 576,
      "ric": 577,
      "Ġcl": 578,
      "erm": 579,
      "out": 580,
      "ition": 581,
      "Ġsp": 582,
      "Ġà¤ħà¤¨": 583,
      ").": 584,
      "Ġres": 585,
      "Ġall": 586,
      "Ġpart": 587,
      "con": 588,
      "Ġà¥": 589,
      "ĠAr": 590,
      "Ġà¤¸à¤®": 591,
      "Ġinclud": 592,
      "ces": 593,
      "over": 594,
      "Ġ18": 595,
      "Ġdis": 596,
      "ie": 597,
      "Ġfirst": 598,
      "ts": 599,
      "Ġte": 600,
      "Ġà¤¯à¤¹": 601,
      "à¤¾à¥¤": 602,
      "à¥Į": 603,
      "ound": 604,
      "ren": 605,
      "ep": 606,
      "Ġone": 607,
      "ced": 608,
      "Ġà¤ķà¤°": 609,
      "à¤¤à¤°": 610,
      "ĠCh": 611,
      "ime": 612,
      "ost": 613,
      "ism": 614,
      "à¤ªà¤¨": 615,
      "Ġthis": 616,
      "Ġbec": 617,
      "ĠV": 618,
      "Ġcan": 619,
      "able": 620,
      "ust": 621,
      "fter": 622,
      "ron": 623,
      "Ġper": 624,
      "ile": 625,
      "ĠTh": 626,
      "ok": 627,
      "Ġ201": 628,
      "Ġbeen": 629,
      "als": 630,
      "meric": 631,
      "ance": 632,
      "Ġmost": 633,
      "und": 634,
      "Ġform": 635,
      "ress": 636,
      "Ġcent": 637,
      "een": 638,
      "hed": 639,
      "ational": 640,
      "Ġsuch": 641,
      "ord": 642,
      "own": 643,
      "Ġused": 644,
      "ue": 645,
      "Ġag": 646,
      "ough": 647,
      "tern": 648,
      "Ġcomm": 649,
      "Ġmore": 650,
      "uring": 651,
      "ack": 652,
      "In": 653,
      "Ġspe": 654,
      "à¤°à¤£": 655,
      "Ġcons": 656,
      "ĠHe": 657,
      "Ġ200": 658,
      "à¤ŀ": 659,
      "19": 660,
      "erv": 661,
      "orm": 662,
      "Ġph": 663,
      "vel": 664,
      "Ġwho": 665,
      "port": 666,
      "ern": 667,
      "Ġrel": 668,
      "ik": 669,
      "lic": 670,
      "Ġ3": 671,
      "ugh": 672,
      "Ġsc": 673,
      "Ġtra": 674,
      "wo": 675,
      "Ġro": 676,
      "ents": 677,
      "ens": 678,
      "ited": 679,
      "angu": 680,
      "Ġsy": 681,
      "Ġthey": 682,
      "ĠAmeric": 683,
      "Ġthan": 684,
      "ice": 685,
      "Ġne": 686,
      "Ġprodu": 687,
      "Ġyear": 688,
      "ose": 689,
      "Ġme": 690,
      "Ġinto": 691,
      "ors": 692,
      "ĠAp": 693,
      "à¤¾à¤ģ": 694,
      "amp": 695,
      "à¤¾,": 696,
      "ĠAs": 697,
      "te": 698,
      "ilm": 699,
      "ium": 700,
      "Ġam": 701,
      "ach": 702,
      "Ġgro": 703,
      "ark": 704,
      "ics": 705,
      "Ġlar": 706,
      "Âł": 707,
      "Ġpre": 708,
      "aus": 709,
      "land": 710,
      "Ġac": 711,
      "Ġmet": 712,
      "Ġev": 713,
      "ists": 714,
      "reat": 715,
      "ĠIt": 716,
      "Ġdes": 717,
      "ology": 718,
      "ran": 719,
      "Ġà¤Ĺà¤¯": 720,
      "ied": 721,
      "lect": 722,
      "ob": 723,
      "ĠĠ": 724,
      "à¤Ĺà¤°": 725,
      "les": 726,
      "Ġover": 727,
      "Ġra": 728,
      "etw": 729,
      "à¤°à¤ķ": 730,
      "ury": 731,
      "ious": 732,
      "inc": 733,
      "Ġsub": 734,
      "ite": 735,
      "Ġcount": 736,
      "à¤¿à¤Ĥ": 737,
      "iss": 738,
      "ular": 739,
      "ĠWar": 740,
      "Ġlangu": 741,
      "à¤«": 742,
      "ener": 743,
      "ific": 744,
      "Ġsome": 745,
      "rib": 746,
      "ĠCon": 747,
      "à¥Ģà¤Ĥ": 748,
      "Ġj": 749,
      "à¤ĵ": 750,
      "Ġtwo": 751,
      "Ġà¤ĸ": 752,
      "ollo": 753,
      "Ġafter": 754,
      "Ġreg": 755,
      "Ġfilm": 756,
      "ĠAt": 757,
      "à¤Ĩ": 758,
      "Ġnum": 759,
      "ted": 760,
      "Ġart": 761,
      "Ġrec": 762,
      "etween": 763,
      "Ġà¤§": 764,
      "ten": 765,
      "Ġwould": 766,
      "iet": 767,
      "lex": 768,
      "outh": 769,
      "Ġmod": 770,
      "ution": 771,
      "Ġmany": 772,
      "rough": 773,
      "ased": 774,
      "ys": 775,
      "ward": 776,
      "ities": 777,
      "ings": 778,
      "Ġatt": 779,
      "§à¥": 780,
      "one": 781,
      "ages": 782,
      "ase": 783,
      "arch": 784,
      "Ġonly": 785,
      "ster": 786,
      "very": 787,
      "ily": 788,
      "old": 789,
      "Ġà¤ħà¤§": 790,
      "Ġear": 791,
      "che": 792,
      "à¤°à¤¦": 793,
      "Ġbetween": 794,
      "oth": 795,
      "ince": 796,
      "à¤°à¤®": 797,
      "ural": 798,
      "Ġass": 799,
      "ual": 800,
      "à¤µà¤°": 801,
      "ond": 802,
      "Ġkn": 803,
      "rans": 804,
      "\".": 805,
      "ft": 806,
      "ood": 807,
      "Ġpr": 808,
      "Ġà¤®à¤¨": 809,
      "à¥Ī,": 810,
      "ĠSe": 811,
      "Ġvar": 812,
      "000": 813,
      "Ġpop": 814,
      "cre": 815,
      "orth": 816,
      "ject": 817,
      "ath": 818,
      "Ġpe": 819,
      "ĠAf": 820,
      "Ġout": 821,
      "Ġ4": 822,
      "Ġhim": 823,
      "Ġthem": 824,
      "ivers": 825,
      "Ġind": 826,
      "Ġpres": 827,
      "Ġ'": 828,
      "ered": 829,
      "ind": 830,
      "ae": 831,
      "are": 832,
      "Ġunder": 833,
      "ĠApollo": 834,
      "Ġstate": 835,
      "Ġtime": 836,
      "gan": 837,
      "Ġwhen": 838,
      "Ġem": 839,
      "ĠThis": 840,
      "Ġso": 841,
      "aw": 842,
      "rop": 843,
      "à¤ĩ": 844,
      "Ġà¤®à¤¹": 845,
      "form": 846,
      "Ġob": 847,
      "oin": 848,
      "stem": 849,
      "ade": 850,
      "ative": 851,
      "Ġmay": 852,
      "Ġup": 853,
      "Ġà¤µà¤°": 854,
      "à¤¢": 855,
      "Ġabout": 856,
      "ail": 857,
      "urn": 858,
      "à¥Ģ,": 859,
      "ock": 860,
      "cial": 861,
      "Ġdif": 862,
      "oh": 863,
      "Ġacc": 864,
      "Ġset": 865,
      "rab": 866,
      "Ġdef": 867,
      "Ġà¤īà¤¤": 868,
      "Ġthere": 869,
      "ever": 870,
      "à¥¦": 871,
      "velop": 872,
      "wn": 873,
      "Ġduring": 874,
      "ĠAmerican": 875,
      "Ġwork": 876,
      "ures": 877,
      "ander": 878,
      "Ġchar": 879,
      "overn": 880,
      "Ġprov": 881,
      "ople": 882,
      "ublic": 883,
      "ized": 884,
      "à¤¨à¤ķ": 885,
      "ons": 886,
      "ict": 887,
      "Ġfound": 888,
      "Ġwhere": 889,
      "uro": 890,
      "à¥ī": 891,
      "Ġthrough": 892,
      "Ġnew": 893,
      "ians": 894,
      "hen": 895,
      "Ġinv": 896,
      "Ġà¤«": 897,
      "Ġ199": 898,
      "ient": 899,
      "ne": 900,
      "Ġinter": 901,
      "Ġ17": 902,
      "Ġrem": 903,
      "ause": 904,
      "ating": 905,
      "ve": 906,
      "Ġqu": 907,
      "Ġwar": 908,
      "Ġfl": 909,
      "Ġpol": 910,
      "Ġcol": 911,
      "à¤¹à¤°": 912,
      "Ġuse": 913,
      "Ġcentury": 914,
      "\",": 915,
      "ix": 916,
      "ically": 917,
      "20": 918,
      "ĠAm": 919,
      "Ġsystem": 920,
      "atic": 921,
      "raph": 922,
      "Ġà¤°à¤¹": 923,
      "Ġsur": 924,
      "ollow": 925,
      "oy": 926,
      "ug": 927,
      "à¤ł": 928,
      "ton": 929,
      "ved": 930,
      "Ġest": 931,
      "Ġact": 932,
      "chn": 933,
      "Ġyears": 934,
      "Ġgener": 935,
      "gest": 936,
      "stit": 937,
      "Ġ5": 938,
      "à¤ķà¤°": 939,
      "dition": 940,
      "ished": 941,
      "ild": 942,
      "ake": 943,
      "Ġher": 944,
      "ower": 945,
      "Ġtrans": 946,
      "Ġgroup": 947,
      "Ġwe": 948,
      "ral": 949,
      "Ġman": 950,
      "Ġdevelop": 951,
      "Ġworld": 952,
      "aj": 953,
      "ban": 954,
      "ger": 955,
      "ĠAlex": 956,
      "oss": 957,
      "uc": 958,
      "Ġdist": 959,
      "ll": 960,
      "Ġoff": 961,
      "Ġà¤¬à¤¨": 962,
      "à¤Ľ": 963,
      "inal": 964,
      "Ġeff": 965,
      "ays": 966,
      "Ġà¤īà¤ª": 967,
      "Ġwhile": 968,
      "ba": 969,
      "the": 970,
      "à¤µà¤¨": 971,
      "Ġincluding": 972,
      "tle": 973,
      "Ġco": 974,
      "Ġfam": 975,
      "cept": 976,
      "owever": 977,
      "Ġsupp": 978,
      "Ġknown": 979,
      "ert": 980,
      "ident": 981,
      "Ġstud": 982,
      "Ġrep": 983,
      "Ġcar": 984,
      "Ġà¤ķà¤°à¤¤": 985,
      "Ġthese": 986,
      "fore": 987,
      "round": 988,
      "Ġà¥§à¥": 989,
      "ature": 990,
      "à¤¯à¤ķ": 991,
      "Ġdo": 992,
      "Ġimp": 993,
      "ĠArab": 994,
      "illion": 995,
      "Ġcall": 996,
      "ĠRe": 997,
      "Ġend": 998,
      "Ġà¤¤à¤¥": 999,
      "ĠY": 1000,
      "urope": 1001,
      "ife": 1002,
      "cy": 1003,
      "Ġgovern": 1004,
      "Ġext": 1005,
      "ĠInd": 1006,
      "Ġwrit": 1007,
      "Ġanim": 1008,
      "ĠUnited": 1009,
      "ĠBrit": 1010,
      "oph": 1011,
      "irect": 1012,
      "Ġwell": 1013,
      "ids": 1014,
      "Ġsl": 1015,
      "Ġterm": 1016,
      "hip": 1017,
      "ually": 1018,
      "Ġcre": 1019,
      "Ġbo": 1020,
      "ments": 1021,
      "ha": 1022,
      "ram": 1023,
      "Ġfollow": 1024,
      "ulation": 1025,
      "my": 1026,
      "à¤ľà¤¨": 1027,
      "Ġlater": 1028,
      "ĠStates": 1029,
      "eder": 1030,
      "Ġà¤ĩà¤¸à¤ķ": 1031,
      "ract": 1032,
      "fl": 1033,
      "Ġloc": 1034,
      "uch": 1035,
      "Ġpeople": 1036,
      "ĠGree": 1037,
      "ise": 1038,
      "Ġboth": 1039,
      "ĠAng": 1040,
      "Ġ6": 1041,
      "ins": 1042,
      "yp": 1043,
      "bert": 1044,
      "à¥įâĢ": 1045,
      "à¤¸à¤ķ": 1046,
      "Ġà¤ªà¤¹": 1047,
      "ike": 1048,
      "Ġthree": 1049,
      "Ġno": 1050,
      "Ġdiffer": 1051,
      "Ġbeing": 1052,
      "Ġ-": 1053,
      "ues": 1054,
      "Ġele": 1055,
      "Ġà¤¨à¤¹": 1056,
      "Ġbecame": 1057,
      "Ġsm": 1058,
      "Ġmain": 1059,
      "udi": 1060,
      "cent": 1061,
      "ines": 1062,
      "Ġsim": 1063,
      "à¤ķà¤¤": 1064,
      "cess": 1065,
      "ĠAnd": 1066,
      "Ġ196": 1067,
      "Ġnumber": 1068,
      "âĢĶ": 1069,
      "Ġà¤ľà¤¨": 1070,
      "ĠEurope": 1071,
      "Ġhigh": 1072,
      "gy": 1073,
      "ĠZ": 1074,
      "à¤·à¤¦": 1075,
      "ars": 1076,
      "ĠEn": 1077,
      "Ġdec": 1078,
      "ilos": 1079,
      "ĠApp": 1080,
      "An": 1081,
      "Ġexp": 1082,
      "Ġfe": 1083,
      "ctions": 1084,
      "ax": 1085,
      "à¤¯à¤¨": 1086,
      "ĠDe": 1087,
      "Ġcountry": 1088,
      "til": 1089,
      "ste": 1090,
      "Ġcharact": 1091,
      "à¥įâĢį": 1092,
      "imes": 1093,
      "cond": 1094,
      "ived": 1095,
      "ajor": 1096,
      "à¤°à¤¯": 1097,
      "oln": 1098,
      "Ġà¤ıà¤µ": 1099,
      "ĠSp": 1100,
      "Ġà¤ķà¤¹": 1101,
      "ement": 1102,
      "Ġtechn": 1103,
      "incoln": 1104,
      "Ġ,": 1105,
      "Ġspec": 1106,
      "à¤°à¤¸": 1107,
      "orn": 1108,
      "arm": 1109,
      "Ġà¤ķà¤°à¤¨": 1110,
      "ograph": 1111,
      "Ġlanguages": 1112,
      "Ġ7": 1113,
      "other": 1114,
      "ĠNew": 1115,
      "Ġany": 1116,
      "Ġpers": 1117,
      "Ġoften": 1118,
      "ible": 1119,
      "Ġhist": 1120,
      "li": 1121,
      "ĠAlexander": 1122,
      "Ġà¤ĺ": 1123,
      "ĠJoh": 1124,
      "Ġorig": 1125,
      "Ġconsid": 1126,
      "elf": 1127,
      "uman": 1128,
      "Ġbl": 1129,
      "lish": 1130,
      "ĠPro": 1131,
      "Ġmed": 1132,
      "ky": 1133,
      "its": 1134,
      "à¤ªà¤°": 1135,
      "à¤¼à¤¾": 1136,
      "iel": 1137,
      "ange": 1138,
      "ilit": 1139,
      "Ġà¤ħà¤°": 1140,
      "ather": 1141,
      "Ġmade": 1142,
      "Ġà¤ħà¤ªà¤¨": 1143,
      "Ġbel": 1144,
      "Ġearly": 1145,
      "led": 1146,
      "Ġà¤¤à¤ķ": 1147,
      "Ġthen": 1148,
      "Ġpartic": 1149,
      "ex": 1150,
      "Ġaut": 1151,
      "ask": 1152,
      "Ġcontin": 1153,
      "ember": 1154,
      "Ġ197": 1155,
      "Ġsign": 1156,
      "à¤²à¤¯": 1157,
      "iew": 1158,
      "ork": 1159,
      "Ġcalled": 1160,
      "ss": 1161,
      "ds": 1162,
      "Ġ8": 1163,
      "à¤ħ": 1164,
      "Ġà¤Ł": 1165,
      "Ġcult": 1166,
      "ains": 1167,
      "Ġsever": 1168,
      "bers": 1169,
      "Ġret": 1170,
      "zer": 1171,
      "omp": 1172,
      "though": 1173,
      "Ġdirect": 1174,
      "ility": 1175,
      "ample": 1176,
      "ences": 1177,
      "ision": 1178,
      "ĠLincoln": 1179,
      "Ġ198": 1180,
      "Ġdisc": 1181,
      "ij": 1182,
      "Ġcity": 1183,
      "Ġdep": 1184,
      "uss": 1185,
      "Ġent": 1186,
      "ĠLe": 1187,
      "Ġlong": 1188,
      "Ġsch": 1189,
      "Ġà¤¸à¤¬": 1190,
      "ĠPh": 1191,
      "conom": 1192,
      "Ġocc": 1193,
      "ĠAg": 1194,
      "Ġmajor": 1195,
      "Ġrev": 1196,
      "ruct": 1197,
      "ah": 1198,
      "ash": 1199,
      "de": 1200,
      "Ġland": 1201,
      "ĠNorth": 1202,
      "iqu": 1203,
      "vent": 1204,
      "Ġincre": 1205,
      "ann": 1206,
      ".\"": 1207,
      "Ġagain": 1208,
      "ives": 1209,
      "ĠArabic": 1210,
      "lished": 1211,
      "ital": 1212,
      "air": 1213,
      "Ġresult": 1214,
      "à¤®à¤¨": 1215,
      "ool": 1216,
      "Ġfour": 1217,
      "ĠJohn": 1218,
      "Ġà¤¡": 1219,
      "hem": 1220,
      "els": 1221,
      "pect": 1222,
      "Ġleg": 1223,
      "Ġcontro": 1224,
      "iversity": 1225,
      "Ġgovernment": 1226,
      "Ġsmall": 1227,
      "ined": 1228,
      "oman": 1229,
      "ĠBritish": 1230,
      "ting": 1231,
      "Ġsoc": 1232,
      "Ġcould": 1233,
      "Ġ.": 1234,
      "Ġdesc": 1235,
      "dam": 1236,
      "Ġserv": 1237,
      "iter": 1238,
      "Ġwater": 1239,
      "ute": 1240,
      "à¤¸à¤¨": 1241,
      "Ġpopulation": 1242,
      "gor": 1243,
      "Ġelect": 1244,
      "Ġalk": 1245,
      "iver": 1246,
      "ants": 1247,
      "ĠUnion": 1248,
      "to": 1249,
      "à¤¸à¤°": 1250,
      "Ġmin": 1251,
      "ides": 1252,
      "ained": 1253,
      "Ġinclude": 1254,
      "ĠAtl": 1255,
      "ty": 1256,
      "ick": 1257,
      "à¤µà¤¤": 1258,
      "osed": 1259,
      "olution": 1260,
      "Ġbefore": 1261,
      "Ġlanguage": 1262,
      "iod": 1263,
      "ms": 1264,
      "Ġair": 1265,
      "hol": 1266,
      "ĠFor": 1267,
      "Ġcommon": 1268,
      "ale": 1269,
      "Ġà¤¶à¤¬": 1270,
      "ively": 1271,
      "ane": 1272,
      "omet": 1273,
      "Ġeffect": 1274,
      "ble": 1275,
      "Ġbu": 1276,
      "ĠApple": 1277,
      "ared": 1278,
      "à¤°à¤¹": 1279,
      "Al": 1280,
      "ourt": 1281,
      "ization": 1282,
      "Ġed": 1283,
      "Ġà¤Ľ": 1284,
      "ley": 1285,
      "Ġbecause": 1286,
      "iation": 1287,
      "Ġexample": 1288,
      "Ġseveral": 1289,
      "ĠEm": 1290,
      "Ġà¤¸à¤ķà¤¤": 1291,
      "à¤®à¤ķ": 1292,
      "raft": 1293,
      "aking": 1294,
      "ful": 1295,
      "à¥Ģà¥¤": 1296,
      "Ġeach": 1297,
      "Ġà¤¸à¤¬à¤¸": 1298,
      "Ġref": 1299,
      "Ġsecond": 1300,
      "18": 1301,
      "ording": 1302,
      "Ġlarge": 1303,
      "ĠSch": 1304,
      "Ġlead": 1305,
      "ck": 1306,
      "Ġexper": 1307,
      "yd": 1308,
      "ided": 1309,
      "Ġà¤§à¤°": 1310,
      "par": 1311,
      "Ġbased": 1312,
      "Ġmon": 1313,
      "Ġequ": 1314,
      "eg": 1315,
      "Ġstr": 1316,
      "Ġstates": 1317,
      "à¤¶à¤¨": 1318,
      "yl": 1319,
      "aced": 1320,
      "ivil": 1321,
      "ĠOn": 1322,
      "ĠAlban": 1323,
      "Ġmus": 1324,
      "ama": 1325,
      "ries": 1326,
      "sc": 1327,
      "Ġ9": 1328,
      "ript": 1329,
      "enn": 1330,
      "Ġamong": 1331,
      "sterdam": 1332,
      "Ġimport": 1333,
      "Ġphilos": 1334,
      "flu": 1335,
      "ke": 1336,
      "à¤ĸà¤¨": 1337,
      "ental": 1338,
      "Ġdifferent": 1339,
      "io": 1340,
      "ĠThey": 1341,
      "Ġsupport": 1342,
      "ĠGreek": 1343,
      "Ġaround": 1344,
      "Ġeconom": 1345,
      "Ġnam": 1346,
      "Ġà¤īà¤¦": 1347,
      "à¤²à¤¨": 1348,
      "Ġclass": 1349,
      "ĠAngol": 1350,
      "tic": 1351,
      "ternational": 1352,
      "à¤ī": 1353,
      "ĠIs": 1354,
      "Ġà¤¬à¤¹": 1355,
      "feder": 1356,
      "Ġown": 1357,
      "istic": 1358,
      "resent": 1359,
      "Ġà¤²à¤Ĺ": 1360,
      "Ġsince": 1361,
      "zerba": 1362,
      "aid": 1363,
      "anes": 1364,
      "Ġname": 1365,
      "ĠHowever": 1366,
      "ijan": 1367,
      "zerbaijan": 1368,
      "Ġsame": 1369,
      "à¤¯à¤µ": 1370,
      "orld": 1371,
      "Ġ10": 1372,
      "Ġback": 1373,
      "à¤¸à¤®": 1374,
      "estern": 1375,
      "ged": 1376,
      "itch": 1377,
      "à¤¯à¤®": 1378,
      "ank": 1379,
      "ised": 1380,
      "ĠSc": 1381,
      "adem": 1382,
      "ological": 1383,
      "ali": 1384,
      "Ġ16": 1385,
      "Ġmov": 1386,
      "Ġspace": 1387,
      "epend": 1388,
      "Ġmodern": 1389,
      "ĠAfric": 1390,
      "hes": 1391,
      "Ġà¤Ĩà¤¦": 1392,
      "ccess": 1393,
      "wards": 1394,
      "Ġà¤Ĩà¤§": 1395,
      "Ġà¤ĳ": 1396,
      "Ġwill": 1397,
      "ets": 1398,
      "à¥Īà¤Ĥ,": 1399,
      "apt": 1400,
      "ued": 1401,
      "inn": 1402,
      "ional": 1403,
      "rodu": 1404,
      "Ġuntil": 1405,
      "Ġpolit": 1406,
      "alt": 1407,
      "Ġ186": 1408,
      "ired": 1409,
      "à¤ĺ": 1410,
      "Ġhuman": 1411,
      "Ġestab": 1412,
      "Ġter": 1413,
      "Ġthose": 1414,
      "Ġprop": 1415,
      "Ġà¤īà¤¨": 1416,
      "Ġperiod": 1417,
      "Ġlife": 1418,
      "à¤¼à¥Ģ": 1419,
      "Ġ15": 1420,
      "ilar": 1421,
      "ified": 1422,
      "Ġcharacter": 1423,
      "ene": 1424,
      "omm": 1425,
      "Ġorgan": 1426,
      "Ġdet": 1427,
      "az": 1428,
      "aut": 1429,
      "à¤Ĺà¤¢": 1430,
      "ĠOr": 1431,
      "ĠSouth": 1432,
      "à¤Łà¤°": 1433,
      "Ġorder": 1434,
      "ĠĠĠĠ": 1435,
      "ĠEng": 1436,
      "Ġdeath": 1437,
      "iety": 1438,
      "ience": 1439,
      "erman": 1440,
      "Ġperson": 1441,
      "Ġmat": 1442,
      "Ġrequ": 1443,
      "ec": 1444,
      "Ġinflu": 1445,
      "omin": 1446,
      "Ġthough": 1447,
      "istan": 1448,
      "à¤ļà¤¨": 1449,
      "Ġabort": 1450,
      "Ġser": 1451,
      "ival": 1452,
      "ĠWorld": 1453,
      "ĠWarhol": 1454,
      "Ġcap": 1455,
      "Ġnon": 1456,
      "ĠRep": 1457,
      "ĠâĢĵ": 1458,
      "ĠAzerbaijan": 1459,
      "Ġmuch": 1460,
      "ghan": 1461,
      "Ġà¤ªà¤¹à¤²": 1462,
      "Ġconsidered": 1463,
      "yn": 1464,
      "Ġmilit": 1465,
      "Ġnear": 1466,
      "ĠConfeder": 1467,
      "pen": 1468,
      "ĠUniversity": 1469,
      "Ġcor": 1470,
      "Ġposs": 1471,
      "à¤¦à¤°": 1472,
      "Ġpresent": 1473,
      "af": 1474,
      "Ġbod": 1475,
      "ĠBell": 1476,
      "ĠEar": 1477,
      "aska": 1478,
      "ier": 1479,
      "Ġdue": 1480,
      "stero": 1481,
      "Ġagainst": 1482,
      "à¤¬à¤°": 1483,
      "Ġà¤ĩà¤¨": 1484,
      "rent": 1485,
      "craft": 1486,
      "ring": 1487,
      "ĠAmsterdam": 1488,
      "Ġshe": 1489,
      "à¤¯à¤¤": 1490,
      "por": 1491,
      "Ġtem": 1492,
      "Ġdid": 1493,
      "iving": 1494,
      "Ġbro": 1495,
      "Ġà¤ħà¤²": 1496,
      "Ġarea": 1497,
      "stein": 1498,
      "ĠSh": 1499,
      "ĠCl": 1500,
      "ĠUS": 1501,
      "Ġfamily": 1502,
      "Ġif": 1503,
      "ately": 1504,
      "Ġlargest": 1505,
      "ina": 1506,
      "itions": 1507,
      "andard": 1508,
      "Ġeng": 1509,
      "Ġtyp": 1510,
      "Ġà¤¬à¤¡": 1511,
      "Ġval": 1512,
      "way": 1513,
      "Ġmem": 1514,
      "stron": 1515,
      "ook": 1516,
      "Ġà¤ķà¤Ī": 1517,
      "Ġindu": 1518,
      "ĠAch": 1519,
      "rog": 1520,
      "Ġà¤ĩà¤¤": 1521,
      "ricult": 1522,
      "à¥ĩà¥¤": 1523,
      "ases": 1524,
      "Ġdiv": 1525,
      "Ġconf": 1526,
      "throp": 1527,
      "ĠWh": 1528,
      "rist": 1529,
      "xt": 1530,
      "Ġpublic": 1531,
      "à¤²à¤¤": 1532,
      "Ġvis": 1533,
      "Ġà¤Ī": 1534,
      "Ġprog": 1535,
      "aving": 1536,
      "Ġappro": 1537,
      "ony": 1538,
      "à¤¯à¤°": 1539,
      "ĠAudi": 1540,
      "Ġlike": 1541,
      "Ġmean": 1542,
      "ission": 1543,
      "Ġvery": 1544,
      "ĠCol": 1545,
      "min": 1546,
      "ven": 1547,
      "Ġsuccess": 1548,
      "lands": 1549,
      "gorith": 1550,
      "sy": 1551,
      "Ġrefer": 1552,
      "Ġsimilar": 1553,
      "ield": 1554,
      "Ġdescrib": 1555,
      "Ġà¤Ĳ": 1556,
      "Ġstat": 1557,
      "man": 1558,
      "ality": 1559,
      "ĠTur": 1560,
      "à¤·à¤£": 1561,
      "Ġwithin": 1562,
      "attle": 1563,
      "Ġmark": 1564,
      "Ġastero": 1565,
      "Ġadv": 1566,
      "Ġoffic": 1567,
      "Ġcontrol": 1568,
      "aim": 1569,
      "br": 1570,
      "med": 1571,
      "Ġoper": 1572,
      "Ġpower": 1573,
      "ross": 1574,
      "Ġfore": 1575,
      "Ġà¤¸à¤Ń": 1576,
      "50": 1577,
      "Ġ$": 1578,
      "Ġà¥¨": 1579,
      "alth": 1580,
      "Ġplay": 1581,
      "Ġcommun": 1582,
      "ĠAfghan": 1583,
      "oint": 1584,
      "Ġ11": 1585,
      "Ġfact": 1586,
      "Ġalong": 1587,
      "Ġà¤¦à¤ķ": 1588,
      "Ġexpl": 1589,
      "rench": 1590,
      "serv": 1591,
      "Ã©": 1592,
      "¯à¥": 1593,
      "row": 1594,
      "ĠMar": 1595,
      "omen": 1596,
      "iven": 1597,
      "uer": 1598,
      "Ġcrit": 1599,
      "ĠAd": 1600,
      "Ġconst": 1601,
      "ize": 1602,
      "Ġproduct": 1603,
      "Ġrepresent": 1604,
      "instein": 1605,
      "abama": 1606,
      "ially": 1607,
      "Ġallow": 1608,
      "Ġann": 1609,
      "Ġtele": 1610,
      "ĠAlaska": 1611,
      "ee": 1612,
      "pire": 1613,
      "Ġes": 1614,
      "Ġoil": 1615,
      "Ġpract": 1616,
      "Ġmeth": 1617,
      "Ġcur": 1618,
      "Ġhyd": 1619,
      "osition": 1620,
      "ĠAsia": 1621,
      "outher": 1622,
      "ently": 1623,
      "ĠCong": 1624,
      "Ġà¤ħà¤µ": 1625,
      "Ġusing": 1626,
      "ĠMus": 1627,
      "Ġvarious": 1628,
      "Ġauth": 1629,
      "outhern": 1630,
      "ĠAc": 1631,
      "cock": 1632,
      "tt": 1633,
      "ales": 1634,
      "Ġgreat": 1635,
      "ĠBC": 1636,
      "ara": 1637,
      "ĠAlbert": 1638,
      "Ġsol": 1639,
      "Ġhig": 1640,
      "antic": 1641,
      "Ġshow": 1642,
      "tal": 1643,
      "Ġide": 1644,
      "Ġread": 1645,
      "ĠCar": 1646,
      "ĠThese": 1647,
      "ended": 1648,
      "..": 1649,
      "Ġà¤¶à¤¹à¤°": 1650,
      "Ġorigin": 1651,
      "Ġpo": 1652,
      "Ġmar": 1653,
      "Ġnational": 1654,
      "assi": 1655,
      "Ġacid": 1656,
      "Ġ=": 1657,
      "Ġmillion": 1658,
      "Ġbegan": 1659,
      "ĠFrench": 1660,
      "Ġà¤īà¤¨à¤ķ": 1661,
      "Ġ202": 1662,
      "ove": 1663,
      "Ġparticular": 1664,
      "Ġins": 1665,
      "Ġappe": 1666,
      "Ġeven": 1667,
      "Ġinc": 1668,
      "str": 1669,
      "Ġrest": 1670,
      "Ġindepend": 1671,
      "itchcock": 1672,
      "ius": 1673,
      "ices": 1674,
      "Ġlaw": 1675,
      "Ġprocess": 1676,
      "Ġfun": 1677,
      "imal": 1678,
      "ĠCan": 1679,
      "illes": 1680,
      "Ġschool": 1681,
      "ox": 1682,
      "Ġastron": 1683,
      "Ġ12": 1684,
      "open": 1685,
      "pecial": 1686,
      "Ġshort": 1687,
      "ophy": 1688,
      "Ġfollowing": 1689,
      "reen": 1690,
      "rote": 1691,
      "ason": 1692,
      "Ġreport": 1693,
      "Ġnow": 1694,
      "Ġà¤¬à¤²": 1695,
      "Ġarg": 1696,
      "Ġà¤¸à¤°": 1697,
      "Ġgeneral": 1698,
      "Ġà¤ķà¤²": 1699,
      "urther": 1700,
      "ĠCent": 1701,
      "à¤Łà¤¨": 1702,
      "ĠNational": 1703,
      "reed": 1704,
      "otle": 1705,
      "ĠJap": 1706,
      "astern": 1707,
      "Ġà¤¦à¤°": 1708,
      "ĠArist": 1709,
      "ĠAngola": 1710,
      "cient": 1711,
      "à¤ĥ": 1712,
      "read": 1713,
      "Ġproduction": 1714,
      "Ġrad": 1715,
      "Ġopp": 1716,
      "Ġgra": 1717,
      "Ġà¤¸à¤®à¤¯": 1718,
      "Ġbelie": 1719,
      "oon": 1720,
      "Ġless": 1721,
      "Ġrelig": 1722,
      "Ġcountries": 1723,
      "Ġoccur": 1724,
      "Ġpat": 1725,
      "Ġà¤ªà¤¶": 1726,
      "Ġnorth": 1727,
      "Ġimportant": 1728,
      "Ġà¤®à¤§": 1729,
      "etic": 1730,
      "à¤ªà¤¤": 1731,
      "ogn": 1732,
      "Ġcomple": 1733,
      "II": 1734,
      "ness": 1735,
      "ris": 1736,
      "ata": 1737,
      "Ġfew": 1738,
      "Ġevery": 1739,
      "Ġright": 1740,
      "Ġprim": 1741,
      "Ġsignific": 1742,
      "Ġterrit": 1743,
      "ves": 1744,
      "empt": 1745,
      "ĠAlger": 1746,
      "ĠAlabama": 1747,
      "Ġspecies": 1748,
      "ĠRepublic": 1749,
      "ipp": 1750,
      "Ġà¤ķà¤®": 1751,
      "Ġdesign": 1752,
      "ĠCongress": 1753,
      "Ġpub": 1754,
      "hern": 1755,
      "Ġprogram": 1756,
      "Ġdem": 1757,
      "ull": 1758,
      "Ġalgorith": 1759,
      "Ġperform": 1760,
      "Ġpolitical": 1761,
      "Ġmilitary": 1762,
      "openha": 1763,
      "ele": 1764,
      "Ġgl": 1765,
      "ĠRuss": 1766,
      "ches": 1767,
      "ademy": 1768,
      "ĠEarth": 1769,
      "itic": 1770,
      "Ġà¤ľà¤¬": 1771,
      "ude": 1772,
      ".,": 1773,
      "Ġway": 1774,
      "ories": 1775,
      "à¤ķà¤²": 1776,
      "Ġled": 1777,
      "Ġadd": 1778,
      "ĠSea": 1779,
      "Ġobject": 1780,
      "Ġpar": 1781,
      "Ġrece": 1782,
      "Ġla": 1783,
      "Ġstill": 1784,
      "Ġhead": 1785,
      "openhauer": 1786,
      "atural": 1787,
      "imate": 1788,
      "ĠBy": 1789,
      "agn": 1790,
      "Ġobserv": 1791,
      "Ġbody": 1792,
      "iam": 1793,
      "Ġsomet": 1794,
      "Ġlim": 1795,
      "ots": 1796,
      "ĠPl": 1797,
      "Ġappear": 1798,
      "cing": 1799,
      "Ġà¤ĵ": 1800,
      "Ġanarch": 1801,
      "Ġ13": 1802,
      "ĠThere": 1803,
      "orthern": 1804,
      "ried": 1805,
      "face": 1806,
      "Ġav": 1807,
      "Ġold": 1808,
      "ingu": 1809,
      "ĠHis": 1810,
      "ands": 1811,
      "ably": 1812,
      "Ġcompany": 1813,
      "Ġfilms": 1814,
      "Ġà¤ĳà¤¸": 1815,
      "Ġseries": 1816,
      "bed": 1817,
      "me": 1818,
      "Ġsaid": 1819,
      "à¤¤à¤¨": 1820,
      "uted": 1821,
      "stitution": 1822,
      "Ġalkali": 1823,
      "ats": 1824,
      "Ġwrote": 1825,
      "hers": 1826,
      "ument": 1827,
      "Ġ193": 1828,
      "Ġhel": 1829,
      "overed": 1830,
      "ternal": 1831,
      "Ġdeveloped": 1832,
      "ography": 1833,
      "Ġreturn": 1834,
      "int": 1835,
      "à¥ĩ,": 1836,
      "Ġà¤¸à¤¹": 1837,
      "ung": 1838,
      "aining": 1839,
      "Ġtradition": 1840,
      "Ġstudy": 1841,
      "Ġindust": 1842,
      "ĠAcademy": 1843,
      "ĠAust": 1844,
      "ouse": 1845,
      "Ġgo": 1846,
      "Ġà¤ħà¤¤": 1847,
      "Ġwhat": 1848,
      "Ġworks": 1849,
      "Ġabortion": 1850,
      "ivity": 1851,
      "ĠPar": 1852,
      "Ġke": 1853,
      "sych": 1854,
      "eb": 1855,
      "Ġcourt": 1856,
      "à¤¨à¤µ": 1857,
      "Ġpur": 1858,
      "Ġder": 1859,
      "ĠHitchcock": 1860,
      "Ġ194": 1861,
      "Ġcomput": 1862,
      "Ġphys": 1863,
      "ril": 1864,
      "Ġsing": 1865,
      "eng": 1866,
      "à¤¤à¤®": 1867,
      "Ġlast": 1868,
      "ured": 1869,
      "Ġhistory": 1870,
      "200": 1871,
      "bit": 1872,
      "mb": 1873,
      "ither": 1874,
      "Ġchild": 1875,
      "Ġregion": 1876,
      "ĠEmpire": 1877,
      "ple": 1878,
      "Ġanthrop": 1879,
      "Ġà¤¨à¤¦": 1880,
      "ĠGe": 1881,
      "Ġresp": 1882,
      "ĠSome": 1883,
      "Ġmethod": 1884,
      "Ġpopular": 1885,
      "Ġfin": 1886,
      "ccording": 1887,
      "app": 1888,
      "day": 1889,
      "Ġtheory": 1890,
      "ĠAb": 1891,
      "à¤µà¤²": 1892,
      "ether": 1893,
      "ĠAchilles": 1894,
      "10": 1895,
      "iated": 1896,
      "Ġsouth": 1897,
      "Ġport": 1898,
      "Ġ14": 1899,
      "acy": 1900,
      "Ġspok": 1901,
      "ĠAmerica": 1902,
      "Ġgroups": 1903,
      "Ġaff": 1904,
      "à¤°à¤Ń": 1905,
      "ites": 1906,
      "Ġalthough": 1907,
      "Ġproble": 1908,
      "Ġsocial": 1909,
      "ean": 1910,
      "à¥¨": 1911,
      "ird": 1912,
      "Ġprot": 1913,
      "ĠRoman": 1914,
      "Ġhistor": 1915,
      "oice": 1916,
      "Ġhal": 1917,
      "Ġareas": 1918,
      "Ġincluded": 1919,
      "Ġpot": 1920,
      "ĠGerman": 1921,
      "Ġlin": 1922,
      "Ġstart": 1923,
      "Ġagricult": 1924,
      "Ġassoc": 1925,
      "ĠYork": 1926,
      "ĠAgassi": 1927,
      "ĠEnglish": 1928,
      "ones": 1929,
      "atures": 1930,
      "Ġmult": 1931,
      "iron": 1932,
      "Ġalche": 1933,
      "ops": 1934,
      "ĠEinstein": 1935,
      "Ġclaim": 1936,
      "lor": 1937,
      "Ġbit": 1938,
      "Ġà¤¸à¤¦": 1939,
      "ential": 1940,
      "ads": 1941,
      "umen": 1942,
      "Ġview": 1943,
      "incip": 1944,
      "ĠAristotle": 1945,
      "ency": 1946,
      "Ġfarm": 1947,
      "idd": 1948,
      "Ġà¤µà¤¹": 1949,
      "Ġà¤Ĩà¤°": 1950,
      "Ġrelations": 1951,
      "Ġstrong": 1952,
      "ĠAlbania": 1953,
      "ration": 1954,
      "Ġer": 1955,
      "Ġcaus": 1956,
      "ington": 1957,
      "Ġsignificant": 1958,
      "ched": 1959,
      "iatic": 1960,
      "less": 1961,
      "Ġbas": 1962,
      "urg": 1963,
      "à¤Ĺà¤¤": 1964,
      "Ġatom": 1965,
      "Ġgrow": 1966,
      "à¤°à¤µ": 1967,
      "ĠAnat": 1968,
      "Ġenc": 1969,
      "Ġbecome": 1970,
      "ĠEuropean": 1971,
      "Ġauthor": 1972,
      "Ġhelp": 1973,
      "Ġnov": 1974,
      "Ġprof": 1975,
      "Ġintrodu": 1976,
      "bon": 1977,
      "sky": 1978,
      "à¤Ĭ": 1979,
      "Ġanal": 1980,
      "Ġmake": 1981,
      "ames": 1982,
      "Ġsug": 1983,
      "Ġusually": 1984,
      "akes": 1985,
      "ĠAndor": 1986,
      "eum": 1987,
      "Ġsour": 1988,
      "Ġcamp": 1989,
      "iction": 1990,
      "Ġnamed": 1991,
      "pecially": 1992,
      "most": 1993,
      "Ġstruct": 1994,
      "Ġstandard": 1995,
      "Ġbook": 1996,
      "ĠAfghanistan": 1997,
      "oot": 1998,
      "ination": 1999,
      "Ġfive": 2000,
      "à¤ķà¤°à¤£": 2001,
      "Ġcomb": 2002,
      "Ġestablished": 2003,
      "17": 2004,
      "ior": 2005,
      "line": 2006,
      "ner": 2007,
      "Ġtook": 2008,
      "Ġdevelopment": 2009,
      "ertain": 2010,
      "ta": 2011,
      "Ġdr": 2012,
      "omy": 2013,
      "Ġlow": 2014,
      "Ġproper": 2015,
      "Ġleft": 2016,
      "ĠAlberta": 2017,
      "vers": 2018,
      "ĠQ": 2019,
      "à¤Ŀ": 2020,
      "Ġtimes": 2021,
      "ĠAfter": 2022,
      "à¤ľà¤°": 2023,
      "ĠBer": 2024,
      "Ġchang": 2025,
      "Ġpass": 2026,
      "Ġmen": 2027,
      "rant": 2028,
      "ule": 2029,
      "Ġlate": 2030,
      "Ġjust": 2031,
      "cul": 2032,
      "ention": 2033,
      "Ġredu": 2034,
      "ode": 2035,
      "Ġdev": 2036,
      "Ġmetals": 2037,
      "itive": 2038,
      "Ġpred": 2039,
      "ston": 2040,
      "Ġliter": 2041,
      "eth": 2042,
      "une": 2043,
      "Ġ192": 2044,
      "rial": 2045,
      "Ġtro": 2046,
      "Ġbi": 2047,
      "Ġmater": 2048,
      "à¤Ĺà¤²": 2049,
      "Ġgiven": 2050,
      "Ġplace": 2051,
      "Ġothers": 2052,
      "ĠAfrica": 2053,
      "Ġinst": 2054,
      "Ġhowever": 2055,
      "Ġhaving": 2056,
      "Ġà¤¹à¤°": 2057,
      "ivid": 2058,
      "utes": 2059,
      "ĠWill": 2060,
      "Ġaddition": 2061,
      "Ġprev": 2062,
      "Ġattempt": 2063,
      "gypt": 2064,
      "SA": 2065,
      "ĠBe": 2066,
      "ĠJu": 2067,
      "oviet": 2068,
      "ĠAtlantic": 2069,
      "ĠSchopenhauer": 2070,
      "cil": 2071,
      "ham": 2072,
      "Ġi": 2073,
      "ining": 2074,
      "Ġeth": 2075,
      "à¥ĩà¤Ĥ,": 2076,
      "Ġiss": 2077,
      "Ġwithout": 2078,
      "ĠInternational": 2079,
      "ĠChrist": 2080,
      "Ġneed": 2081,
      "Ġrecord": 2082,
      "Ġanimation": 2083,
      "ĠAnatol": 2084,
      "à¥«": 2085,
      "à¥§à¥": 2086,
      "ense": 2087,
      "Ġà¤¸à¤°à¤ķ": 2088,
      "Ġhome": 2089,
      "ĠHer": 2090,
      "sequ": 2091,
      "stitute": 2092,
      "Ġmusic": 2093,
      "ĠCanad": 2094,
      "side": 2095,
      "ances": 2096,
      "Ġsold": 2097,
      "ĠPers": 2098,
      "Ġopen": 2099,
      "Ġgod": 2100,
      "Ġlocal": 2101,
      "Ġmembers": 2102,
      "Ġcase": 2103,
      "Ġanother": 2104,
      "ilt": 2105,
      "Ġsk": 2106,
      "ĠBl": 2107,
      "Ġvers": 2108,
      "Ġsepar": 2109,
      "ification": 2110,
      "Ġwritten": 2111,
      "Ġver": 2112,
      "roas": 2113,
      "lear": 2114,
      "Ġà¤ħà¤Ń": 2115,
      "phab": 2116,
      "Ġproduced": 2117,
      "Ġsuggest": 2118,
      "lam": 2119,
      "Ġtit": 2120,
      "ergy": 2121,
      "atin": 2122,
      "à¤¿,": 2123,
      "à¤¤à¤ķ": 2124,
      "à¤¯à¤¯à¤¨": 2125,
      "idence": 2126,
      "Ġà¤Ĺà¤ı": 2127,
      "Ġà¤īà¤¸": 2128,
      "Ġinvol": 2129,
      "Ġsurface": 2130,
      "Ġcoast": 2131,
      "Ġsometimes": 2132,
      "Ġturn": 2133,
      "Ġmass": 2134,
      "ille": 2135,
      "à¤¥à¤²": 2136,
      "Ġlevel": 2137,
      "Ġforms": 2138,
      "Ġtechniqu": 2139,
      "roasiatic": 2140,
      "enced": 2141,
      "Ġdown": 2142,
      "à¤²à¤µ": 2143,
      "olic": 2144,
      "Ġnatural": 2145,
      "Ġsuff": 2146,
      "ĠWhen": 2147,
      "Ġrelat": 2148,
      "Ġsystems": 2149,
      "sh": 2150,
      "Ġtax": 2151,
      "Ġbr": 2152,
      "Ġà¤ħà¤ķ": 2153,
      "Ġà¤Ĩà¤¤": 2154,
      "Ġword": 2155,
      "ze": 2156,
      "ator": 2157,
      "Ġant": 2158,
      "ĠMed": 2159,
      "Ġ195": 2160,
      "Ġexist": 2161,
      "Ġespecially": 2162,
      "rance": 2163,
      "Ġfinal": 2164,
      "Ġday": 2165,
      "à¤µà¤µ": 2166,
      "ĠMon": 2167,
      "ability": 2168,
      "ĠRo": 2169,
      "à¤Ńà¤Ĺ": 2170,
      "ĠApril": 2171,
      "Ġspoken": 2172,
      "mon": 2173,
      "Ġcare": 2174,
      "Ġdecl": 2175,
      "Ġheld": 2176,
      "aken": 2177,
      "Ġexperim": 2178,
      "12": 2179,
      "à¤°à¤¶": 2180,
      "alk": 2181,
      "Ġmot": 2182,
      "Ġprom": 2183,
      "ift": 2184,
      "Ġpublished": 2185,
      "ret": 2186,
      "Ġsal": 2187,
      "Ġhand": 2188,
      "Ġel": 2189,
      "Ġbeg": 2190,
      "ĠEgypt": 2191,
      "à¤¼à¥ĩ": 2192,
      "Ġmeans": 2193,
      "On": 2194,
      "Ġinit": 2195,
      "ements": 2196,
      "of": 2197,
      "Ġbor": 2198,
      "Ġformer": 2199,
      "ĠPr": 2200,
      "Ġwords": 2201,
      "ploy": 2202,
      "Ġprincip": 2203,
      "Ġterms": 2204,
      "ape": 2205,
      "rew": 2206,
      "Ġbran": 2207,
      "Ġline": 2208,
      "Ġà¤Ĩà¤¯": 2209,
      "Ġcrew": 2210,
      "aign": 2211,
      "ming": 2212,
      "yle": 2213,
      "Ġtreat": 2214,
      "Ġdata": 2215,
      "Ġeither": 2216,
      "ĠSoviet": 2217,
      "ify": 2218,
      "Ġcentral": 2219,
      "Ġevent": 2220,
      "Ġearli": 2221,
      "Ġindivid": 2222,
      "Ġcolon": 2223,
      "ĠJuly": 2224,
      "ux": 2225,
      "Ġcivil": 2226,
      "Ġpoint": 2227,
      "Ġrele": 2228,
      "Ġbeh": 2229,
      "Ġrul": 2230,
      "ĠAtlas": 2231,
      "avery": 2232,
      "for": 2233,
      "oks": 2234,
      "Ġson": 2235,
      "Ġmy": 2236,
      "à¤®à¤¤": 2237,
      "ĠComm": 2238,
      "ths": 2239,
      "à¤¼à¤¿": 2240,
      "eneral": 2241,
      "Ġà¤®à¤¹à¤¤": 2242,
      "Ġ0": 2243,
      "att": 2244,
      "Ġtotal": 2245,
      "Ġrese": 2246,
      "Ġlower": 2247,
      "utions": 2248,
      "ends": 2249,
      "Ġchange": 2250,
      "Ġelectron": 2251,
      "Ġmaterial": 2252,
      "deen": 2253,
      "fic": 2254,
      "asing": 2255,
      "imately": 2256,
      "ĠCivil": 2257,
      "Ġforces": 2258,
      "ĠPat": 2259,
      "ĠPort": 2260,
      "berdeen": 2261,
      "ects": 2262,
      "Ġnumbers": 2263,
      "formation": 2264,
      "Ġeduc": 2265,
      "Ġdescribed": 2266,
      "rap": 2267,
      "ote": 2268,
      "Ġconc": 2269,
      "ovsky": 2270,
      "ĠArt": 2271,
      "Ġbuild": 2272,
      "Ġsix": 2273,
      "Ġlight": 2274,
      "ests": 2275,
      "Ġà¤īà¤¸à¤ķ": 2276,
      "ruction": 2277,
      "ruba": 2278,
      "Ġspecial": 2279,
      "Ġdefe": 2280,
      "Ġà¤Ĳà¤¸": 2281,
      "15": 2282,
      "As": 2283,
      "Re": 2284,
      "self": 2285,
      "ĠâĢ": 2286,
      "Ġsent": 2287,
      "ĠAug": 2288,
      "Ġmouth": 2289,
      "ĠBr": 2290,
      "Ġsee": 2291,
      "phib": 2292,
      "Ġshould": 2293,
      "oyal": 2294,
      "Ġà¥§à¥¯à¥": 2295,
      "dom": 2296,
      "men": 2297,
      "arily": 2298,
      "ending": 2299,
      "by": 2300,
      "uary": 2301,
      "Ġsw": 2302,
      "Ġfree": 2303,
      "Ġreal": 2304,
      "Ġrepl": 2305,
      "ĠComp": 2306,
      "ĠMay": 2307,
      "ĠRiver": 2308,
      "ĠNov": 2309,
      "Ġà¤Ĺà¤Ī": 2310,
      "Ġformed": 2311,
      "vision": 2312,
      "ĠX": 2313,
      "Ġcr": 2314,
      "à¤µà¤ª": 2315,
      "used": 2316,
      "ulf": 2317,
      "ĠEd": 2318,
      "Ġdoes": 2319,
      "Ġaircraft": 2320,
      "à¤¯à¤µà¤¸": 2321,
      "SC": 2322,
      "co": 2323,
      "arian": 2324,
      "ott": 2325,
      "Ġà¤ħà¤®": 2326,
      "Ġà¤¨à¤Ĺà¤°": 2327,
      "à¤¥à¤®": 2328,
      "ĠAss": 2329,
      "Ġculture": 2330,
      "ĠGeor": 2331,
      "tin": 2332,
      "uf": 2333,
      "Ġà¤ĭ": 2334,
      "Ġcame": 2335,
      "utch": 2336,
      "Ġà¤¬à¤¢": 2337,
      "Ġvol": 2338,
      "Ġmeas": 2339,
      "arkovsky": 2340,
      "Ġ177": 2341,
      "Ġbitumen": 2342,
      "ĠAugust": 2343,
      "wh": 2344,
      "ĠMoon": 2345,
      "ached": 2346,
      "Ġrather": 2347,
      "Ġenergy": 2348,
      "Ġelements": 2349,
      "ashington": 2350,
      "ype": 2351,
      "Ġwon": 2352,
      "Ġdel": 2353,
      "istory": 2354,
      "avy": 2355,
      "Ġrun": 2356,
      "ĠOther": 2357,
      "Ġleast": 2358,
      "Ġmetal": 2359,
      "Ġestim": 2360,
      "Ġtechnology": 2361,
      "à¤ĸà¤¨à¤Ĭ": 2362,
      "Ġcapital": 2363,
      "ĠTurk": 2364,
      "hib": 2365,
      "Ġwid": 2366,
      "Ġfood": 2367,
      "Ġmust": 2368,
      "Ġren": 2369,
      "à¤ľà¤¸": 2370,
      "Ġcreated": 2371,
      "inning": 2372,
      "Ġtake": 2373,
      "anish": 2374,
      "ĠEx": 2375,
      "abor": 2376,
      "Ġspeak": 2377,
      "ysis": 2378,
      "Ġgenerally": 2379,
      "ĠRev": 2380,
      "Ġoriginal": 2381,
      "Ġlaun": 2382,
      "à¤°à¤²": 2383,
      "à¤¨à¤¤": 2384,
      "Ġbir": 2385,
      "aves": 2386,
      "Ġnumer": 2387,
      "Ġlocated": 2388,
      "anese": 2389,
      "Ġengine": 2390,
      "action": 2391,
      "Ġanime": 2392,
      "aries": 2393,
      "Ġtop": 2394,
      "ush": 2395,
      "Ġarmy": 2396,
      "ĠKing": 2397,
      "Ġident": 2398,
      "ison": 2399,
      "Ġpa": 2400,
      "ĠPres": 2401,
      "ounced": 2402,
      "Ġacross": 2403,
      "Ġassist": 2404,
      "ĠPhil": 2405,
      "lin": 2406,
      "now": 2407,
      "ored": 2408,
      "atter": 2409,
      "Ġsum": 2410,
      "Ġalphab": 2411,
      "ĠWashington": 2412,
      "aces": 2413,
      "illed": 2414,
      "ĠJan": 2415,
      "Ġthroughout": 2416,
      "Ġfunction": 2417,
      "ways": 2418,
      "Ġà¤Ĭ": 2419,
      "Ġà¤Ŀ": 2420,
      "à¤¯à¤ª": 2421,
      "Ġà¤ħà¤¸": 2422,
      "ĠLatin": 2423,
      "ours": 2424,
      "rict": 2425,
      "Ġparts": 2426,
      "Ġmodel": 2427,
      "à¥¦à¥¦": 2428,
      "Ġà¤ľà¤¨à¤¸": 2429,
      "Ġà¤²à¤Ĺà¤Ńà¤Ĺ": 2430,
      "iom": 2431,
      "Â°": 2432,
      "here": 2433,
      "Ġpri": 2434,
      "ĠSw": 2435,
      "ray": 2436,
      "ope": 2437,
      "ĠRand": 2438,
      "ptember": 2439,
      "Ġchoice": 2440,
      "Ġarr": 2441,
      "Ġrecogn": 2442,
      "ĠAlgeria": 2443,
      "ym": 2444,
      "Ġinf": 2445,
      "Ġfail": 2446,
      "Ġge": 2447,
      "Ġgen": 2448,
      "orts": 2449,
      "ĠOne": 2450,
      "Ġplan": 2451,
      "Ġfollowed": 2452,
      "Ġschol": 2453,
      "Ġbroad": 2454,
      "Ex": 2455,
      "Ġ:": 2456,
      "ery": 2457,
      "isl": 2458,
      "Ġhow": 2459,
      "à¤¡à¤²": 2460,
      "à¤ļà¤²": 2461,
      "ĠArmy": 2462,
      "ĠSeptember": 2463,
      "Ġeconomic": 2464,
      "ĠAndorra": 2465,
      "be": 2466,
      "rin": 2467,
      "rast": 2468,
      "viron": 2469,
      "itude": 2470,
      "ocr": 2471,
      "Ġhealth": 2472,
      "Ġimpro": 2473,
      "ĠConfederate": 2474,
      "Ġofficial": 2475,
      "bs": 2476,
      "Ġax": 2477,
      "ittle": 2478,
      "arn": 2479,
      "ĠAberdeen": 2480,
      "igu": 2481,
      "à¤§à¤¨": 2482,
      "Ġphot": 2483,
      "Ġ30": 2484,
      "Ġanimals": 2485,
      "11": 2486,
      "kara": 2487,
      "hest": 2488,
      "à¥ģà¤Ĥ": 2489,
      "ĠMarch": 2490,
      "osp": 2491,
      "à¤£à¤¨": 2492,
      "ĠFrance": 2493,
      "Ġexcept": 2494,
      "Ġconsist": 2495,
      "Ġhimself": 2496,
      "Ġcarbon": 2497,
      "Ġcurrent": 2498,
      "bo": 2499,
      "like": 2500,
      "mit": 2501,
      "mber": 2502,
      "iness": 2503,
      "Ġancient": 2504,
      "Ġep": 2505,
      "istics": 2506,
      "Ġlet": 2507,
      "ondon": 2508,
      "Ġcontinued": 2509,
      "Ġanthropology": 2510,
      "iddle": 2511,
      "à¥©": 2512,
      "Ġwomen": 2513,
      "Ġmer": 2514,
      "lection": 2515,
      "ĠTe": 2516,
      "ples": 2517,
      "196": 2518,
      "Ġrelated": 2519,
      "Ġscient": 2520,
      "Ġnext": 2521,
      "ĠIndian": 2522,
      "Ġbuilt": 2523,
      "Ġthought": 2524,
      "iers": 2525,
      "uel": 2526,
      "Ġmaking": 2527,
      "à¤Ĺà¤®": 2528,
      "cean": 2529,
      "ister": 2530,
      "Ġcommer": 2531,
      "ected": 2532,
      "Ġeconomy": 2533,
      "Ġcampaign": 2534,
      "ai": 2535,
      "Ġsat": 2536,
      "Ġpron": 2537,
      "Ġpsych": 2538,
      "Ġgood": 2539,
      "ĠChina": 2540,
      "Ġ2010": 2541,
      "Ġpresident": 2542,
      "Ġcharacters": 2543,
      "Ġaver": 2544,
      "Ġcal": 2545,
      "ĠAruba": 2546,
      "ols": 2547,
      "cember": 2548,
      "ĠWestern": 2549,
      "Ġà¤īà¤ļ": 2550,
      "ĠChar": 2551,
      "Ġphilosophy": 2552,
      "Ġsingle": 2553,
      "14": 2554,
      "not": 2555,
      "à¥¬": 2556,
      "à¤¨à¤¸": 2557,
      "ĠMany": 2558,
      "ĠPe": 2559,
      "ĠWest": 2560,
      "ĠFran": 2561,
      "ĠDutch": 2562,
      "ĠJune": 2563,
      "Ġcontrib": 2564,
      "Ġscript": 2565,
      "Ġsymb": 2566,
      "Ġmeaning": 2567,
      "Ġasteroids": 2568,
      "à¥®": 2569,
      "inct": 2570,
      "Ġdial": 2571,
      "rag": 2572,
      "raw": 2573,
      "Ġà¤°à¤ĸ": 2574,
      "Ġslavery": 2575,
      "hemat": 2576,
      "Ġtemper": 2577,
      "16": 2578,
      "à¥Ń": 2579,
      "ino": 2580,
      "Ġchem": 2581,
      "ĠTro": 2582,
      "eles": 2583,
      "Ġthus": 2584,
      "Ġnorthern": 2585,
      "unar": 2586,
      "Ġalt": 2587,
      "ĠLondon": 2588,
      "ĠDecember": 2589,
      "ĠWhile": 2590,
      "Ġtroops": 2591,
      "Ph": 2592,
      "Ã¼": 2593,
      "Ġinternational": 2594,
      "ĠTarkovsky": 2595,
      "ĠKh": 2596,
      "ief": 2597,
      "Ġaccount": 2598,
      "stead": 2599,
      "ĠAnatolia": 2600,
      "augh": 2601,
      "cle": 2602,
      "Ġess": 2603,
      "à¥ª": 2604,
      "Ġage": 2605,
      "Ġpost": 2606,
      "Ġeast": 2607,
      "Ġlive": 2608,
      "ĠShe": 2609,
      "ĠCal": 2610,
      "ĠEast": 2611,
      "ĠGeneral": 2612,
      "Ġvow": 2613,
      "Ġsuper": 2614,
      "ĠNe": 2615,
      "Ġà¤Ĩà¤ľ": 2616,
      "iev": 2617,
      "Ġsubject": 2618,
      "à¤ĩà¤¨": 2619,
      "Ġpossible": 2620,
      "rogen": 2621,
      "Ġnovel": 2622,
      "Ġresearch": 2623,
      "son": 2624,
      "upp": 2625,
      "Ġtype": 2626,
      "ering": 2627,
      "Ġcapt": 2628,
      "Ġcertain": 2629,
      "Ġwest": 2630,
      "icated": 2631,
      "ilies": 2632,
      "Ġthird": 2633,
      "ĠBo": 2634,
      "ĠGreat": 2635,
      "Ġarch": 2636,
      "Ġmostly": 2637,
      "Ġcommand": 2638,
      "Ġhigher": 2639,
      "Ġconcern": 2640,
      "iol": 2641,
      "Ġ[": 2642,
      "Ġtw": 2643,
      "ators": 2644,
      "Ġcities": 2645,
      "Ġfather": 2646,
      "ceed": 2647,
      "Ġconcept": 2648,
      "ĠHar": 2649,
      "ĠDav": 2650,
      "ounds": 2651,
      "Ġscience": 2652,
      "Ġtrade": 2653,
      "Ġsyn": 2654,
      "Ġemploy": 2655,
      "Ġexpress": 2656,
      "Ġproducts": 2657,
      "Ġreceived": 2658,
      ".)": 2659,
      "à¤°à¤¨": 2660,
      "à¥Ģ-": 2661,
      "Ġdest": 2662,
      "Ġà¤¸à¤¨": 2663,
      "Ġalmost": 2664,
      "ĠPol": 2665,
      "ested": 2666,
      "Ġattack": 2667,
      "Ġrelationship": 2668,
      "Americ": 2669,
      "million": 2670,
      "pite": 2671,
      "rated": 2672,
      "Ã¶": 2673,
      "Ġfar": 2674,
      "Ġfind": 2675,
      "Ġposition": 2676,
      "Ġà¤ªà¤¤": 2677,
      "Ġgu": 2678,
      "ades": 2679,
      "ĠBattle": 2680,
      "ĠOct": 2681,
      "Ġasteroid": 2682,
      "Ġindustry": 2683,
      "Ġprevious": 2684,
      "ditions": 2685,
      "ling": 2686,
      "à¤°à¤¥à¤®": 2687,
      "ream": 2688,
      "Ġfurther": 2689,
      "Ġmother": 2690,
      "uries": 2691,
      "ĠDuring": 2692,
      "aps": 2693,
      "Ġyoun": 2694,
      "199": 2695,
      "Ġalgorithm": 2696,
      "80": 2697,
      "ober": 2698,
      "ink": 2699,
      "Ġfall": 2700,
      "Ġpain": 2701,
      "ament": 2702,
      "ula": 2703,
      "ĠDel": 2704,
      "Ġrate": 2705,
      "Ġclos": 2706,
      "ĠItal": 2707,
      "obal": 2708,
      "Ġpolic": 2709,
      "ficult": 2710,
      "vironment": 2711,
      "bigu": 2712,
      "ising": 2713,
      "Ġoffer": 2714,
      "Ġfem": 2715,
      "Ġmor": 2716,
      "umb": 2717,
      "à¥ĭà¤Ĥ,": 2718,
      "Ġ190": 2719,
      "Ġadop": 2720,
      "Ġdifficult": 2721,
      "ĠIndia": 2722,
      "ĠOctober": 2723,
      "ria": 2724,
      "ĠInstitute": 2725,
      "Ġà¤¶à¤¤": 2726,
      "Ġrange": 2727,
      "ĠAlthough": 2728,
      "Ġevidence": 2729,
      "Ġcultural": 2730,
      "Ġphilosop": 2731,
      "ĠAfrican": 2732,
      "Ġdeterm": 2733,
      "Ġinfluence": 2734,
      "Ġreported": 2735,
      "Ġhalf": 2736,
      "ĠJanuary": 2737,
      "Ġcir": 2738,
      "Ġfri": 2739,
      "ĠCourt": 2740,
      "Ġà¤ľà¤¹": 2741,
      "Ġcompan": 2742,
      "Ġ2011": 2743,
      "lected": 2744,
      "Ġdiscovered": 2745,
      "Ġincreased": 2746,
      "ĠWilliam": 2747,
      "lim": 2748,
      "Ġ+": 2749,
      "aster": 2750,
      "Ġforce": 2751,
      "ĠII": 2752,
      "Ġ21": 2753,
      "Ġvict": 2754,
      "ards": 2755,
      "Ġabs": 2756,
      "Ġ2014": 2757,
      "Ġterritory": 2758,
      "Ġassociated": 2759,
      "ĠPortug": 2760,
      "Th": 2761,
      "ole": 2762,
      "Ġsouthern": 2763,
      "ĠAccording": 2764,
      "Ġorbit": 2765,
      "resp": 2766,
      "Ġà¤Ĩà¤µ": 2767,
      "Ġà¤Ĩà¤Ĺà¤°": 2768,
      "ibr": 2769,
      "ront": 2770,
      "Ġ2009": 2771,
      "Ġindependence": 2772,
      "ufact": 2773,
      "pro": 2774,
      "Ġfield": 2775,
      "Ġdig": 2776,
      "Ġà¤īà¤ªà¤¨": 2777,
      "clus": 2778,
      "Ġ2000": 2779,
      "Ġknow": 2780,
      "Ġremained": 2781,
      "Ġastronaut": 2782,
      "Ġanalysis": 2783,
      "cer": 2784,
      "Ġcour": 2785,
      "unic": 2786,
      "ĠPress": 2787,
      "Ġteam": 2788,
      "Ġneg": 2789,
      "Ġnever": 2790,
      "Ġappeal": 2791,
      "30": 2792,
      "sel": 2793,
      "Ġdied": 2794,
      "Ġhold": 2795,
      "Ġlost": 2796,
      "ĠMan": 2797,
      "ĠDem": 2798,
      "que": 2799,
      "Ġmoved": 2800,
      "Ġseen": 2801,
      "ĠAll": 2802,
      "play": 2803,
      "Ġtransl": 2804,
      "Ġentire": 2805,
      "Ġmarket": 2806,
      "Ġreligious": 2807,
      "Ġcomputer": 2808,
      "Ġill": 2809,
      "Ġsong": 2810,
      "ĠAir": 2811,
      "ĠSoc": 2812,
      "rain": 2813,
      "Ġgas": 2814,
      "ĠMin": 2815,
      "Ġalg": 2816,
      "Ġ24": 2817,
      "Ġ2012": 2818,
      "Ġunderst": 2819,
      "Ġflight": 2820,
      "ĠJapanese": 2821,
      "Ġbelieved": 2822,
      "ĠRussian": 2823,
      "uxley": 2824,
      "Ġcommercial": 2825,
      ");": 2826,
      "Ar": 2827,
      "Ġtaken": 2828,
      "Ġcause": 2829,
      "Ġmagn": 2830,
      "ĠSouthern": 2831,
      "ĠCount": 2832,
      "Ġrank": 2833,
      "Ġabove": 2834,
      "Ġitself": 2835,
      "Ġclimate": 2836,
      "Ġpriv": 2837,
      "Ġavail": 2838,
      "gg": 2839,
      "ges": 2840,
      "year": 2841,
      "heast": 2842,
      "à¤°à¤ĸ": 2843,
      "Ġwestern": 2844,
      "Ġfoc": 2845,
      "otes": 2846,
      "Ġgave": 2847,
      "odern": 2848,
      "odium": 2849,
      "ouncil": 2850,
      "ĠNo": 2851,
      "Ġà¤¤à¤°à¤¹": 2852,
      "Ġcomplex": 2853,
      "à¤¯à¤µà¤¹": 2854,
      "Ġapprox": 2855,
      "Ġeducation": 2856,
      "ef": 2857,
      "iences": 2858,
      "atory": 2859,
      "Ġcoll": 2860,
      "Ġlist": 2861,
      "Ġà¤Ĩà¤¨": 2862,
      "âĢĻ": 2863,
      "Ġà¤īà¤ªà¤¯": 2864,
      "Ġfeatures": 2865,
      "ĠSpanish": 2866,
      "minist": 2867,
      "Ġletter": 2868,
      "American": 2869,
      "west": 2870,
      "Ġfac": 2871,
      "Ġfight": 2872,
      "Ġfund": 2873,
      "Ġemer": 2874,
      "chan": 2875,
      "Ġconcent": 2876,
      "anding": 2877,
      "Ġà¤ıà¤¶": 2878,
      "ĠJohnston": 2879,
      "Ġestablish": 2880,
      "Ġcritic": 2881,
      "Ġhydro": 2882,
      "bedo": 2883,
      "ebru": 2884,
      "Ġmultip": 2885,
      "Ġaverage": 2886,
      "respond": 2887,
      "13": 2888,
      "ras": 2889,
      "well": 2890,
      "reme": 2891,
      "Ġbus": 2892,
      "roup": 2893,
      "Ġdi": 2894,
      "à¤¦à¤¨": 2895,
      "Ġreason": 2896,
      "eter": 2897,
      "amples": 2898,
      "Ġgold": 2899,
      "ought": 2900,
      "Ġaccept": 2901,
      "Ġfamilies": 2902,
      "Ġhighest": 2903,
      "Ġrights": 2904,
      "ĠCanada": 2905,
      "Ġversion": 2906,
      "Ġaxiom": 2907,
      "ebruary": 2908,
      "Ġ&": 2909,
      "isc": 2910,
      "à¤¨à¤®": 2911,
      "Ġtour": 2912,
      "à¤¦à¤ķ": 2913,
      "ctor": 2914,
      "Ġà¤ħà¤ª": 2915,
      "ĠIts": 2916,
      "Ġ25": 2917,
      "Ġrespect": 2918,
      "Ġincludes": 2919,
      "ensive": 2920,
      "Ġmovement": 2921,
      "Ġestimated": 2922,
      "',": 2923,
      "iber": 2924,
      "ties": 2925,
      "à¥§": 2926,
      "Ġtr": 2927,
      "Ġwin": 2928,
      "Ġfig": 2929,
      "Ġdoc": 2930,
      "istor": 2931,
      "Ġà¤²à¤ĸà¤¨à¤Ĭ": 2932,
      "Ġsea": 2933,
      "Ġamphib": 2934,
      "ieties": 2935,
      "Ġaccording": 2936,
      "Ġprovince": 2937,
      "Ġmaint": 2938,
      "Ġproposed": 2939,
      "Ġtypically": 2940,
      "Ġindividual": 2941,
      "ios": 2942,
      "Ġside": 2943,
      "Ġà¤¹à¤®": 2944,
      "Ġlog": 2945,
      "rad": 2946,
      "ĠEl": 2947,
      "ĠFebruary": 2948,
      "Ġ2020": 2949,
      "obel": 2950,
      "Ġregions": 2951,
      "Ġtypes": 2952,
      "ĠRevolution": 2953,
      "ked": 2954,
      "à¤²à¤¬": 2955,
      "Ġlack": 2956,
      "Ġisland": 2957,
      "Ġà¤Ĩà¤Ī": 2958,
      "Ġplant": 2959,
      "Ġelement": 2960,
      "Ġparticip": 2961,
      "Ġleading": 2962,
      "Ġreferred": 2963,
      "Ġchildren": 2964,
      "Ġintroduced": 2965,
      "ĠPresident": 2966,
      "Ġscholars": 2967,
      "au": 2968,
      "reg": 2969,
      "Ġhum": 2970,
      "ĠMount": 2971,
      "ithium": 2972,
      "à¤¶à¤ķ": 2973,
      "Ġproject": 2974,
      "Ġsubst": 2975,
      "Ġjoin": 2976,
      "Ġmanufact": 2977,
      "Ġmajority": 2978,
      "Ġà¤Īà¤¸": 2979,
      "ĠNovember": 2980,
      "BC": 2981,
      "Ch": 2982,
      "nal": 2983,
      "sp": 2984,
      "Ġtrib": 2985,
      "Ġox": 2986,
      "Ġbase": 2987,
      "Ġlik": 2988,
      "Ġ100": 2989,
      "ĠMac": 2990,
      "emb": 2991,
      "emitic": 2992,
      "ferences": 2993,
      "century": 2994,
      "Ġtelevision": 2995,
      "Ġtraditional": 2996,
      "Ġlinks": 2997,
      "ĠâĢĺ": 2998,
      "Un": 2999,
      "gin": 3000,
      "iate": 3001,
      "mp": 3002,
      "Ġz": 3003,
      "Ġaway": 3004,
      "Ġdomin": 3005,
      "ett": 3006,
      "Ġconqu": 3007,
      "à¤¬à¤¨": 3008,
      "aged": 3009,
      "ĠRes": 3010,
      "ption": 3011,
      "ĠAnkara": 3012,
      "Ġdisp": 3013,
      "ĠVol": 3014,
      "Ġlarger": 3015,
      "ĠBritain": 3016,
      "Ġforeign": 3017,
      "Ġlimited": 3018,
      "uk": 3019,
      "Ġtest": 3020,
      "isation": 3021,
      "Ġmount": 3022,
      "Ġmission": 3023,
      "Ġden": 3024,
      "Ġlittle": 3025,
      "Ġ(\"": 3026,
      "ĠPart": 3027,
      "Ġprob": 3028,
      "Ġdeb": 3029,
      "Ġable": 3030,
      "aceae": 3031,
      "Ġproduce": 3032,
      "ĠCentral": 3033,
      "Ġalphabet": 3034,
      "Äģ": 3035,
      "Ġcreat": 3036,
      "à¤ķà¤¸": 3037,
      "ĠAe": 3038,
      "let": 3039,
      "Ġlo": 3040,
      "ĠTo": 3041,
      "urch": 3042,
      "Ġrole": 3043,
      "Ġacids": 3044,
      "Ġvariety": 3045,
      "Ġsets": 3046,
      "Ġmedia": 3047,
      "Ġsuccessful": 3048,
      "Ġobjects": 3049,
      "Ġproblems": 3050,
      "oid": 3051,
      "Ġach": 3052,
      "arg": 3053,
      "Ġbest": 3054,
      "à¤ªà¤ķ": 3055,
      "Ġstar": 3056,
      "uments": 3057,
      "Ġuses": 3058,
      "Ġapplic": 3059,
      "Ġconson": 3060,
      "cret": 3061,
      "Ġaccess": 3062,
      "Ġdefin": 3063,
      "Ġ178": 3064,
      "Ġconsider": 3065,
      "Ġlegal": 3066,
      "ĠAlbanian": 3067,
      "St": 3068,
      "ball": 3069,
      "eh": 3070,
      "ĠÃ": 3071,
      "ened": 3072,
      "Ġfav": 3073,
      "Ġpast": 3074,
      "ĠCor": 3075,
      "Ġgre": 3076,
      "ĠWith": 3077,
      "ĠState": 3078,
      "Ġà¤ļà¤²": 3079,
      "Ġscreen": 3080,
      "Ġlegisl": 3081,
      "Ġà¤ħà¤²à¤Ĺ": 3082,
      "taic": 3083,
      "Ġchanges": 3084,
      "selves": 3085,
      "ana": 3086,
      "Ġsil": 3087,
      "Ġsize": 3088,
      "Ġpow": 3089,
      "Ġdays": 3090,
      "ĠSy": 3091,
      "ems": 3092,
      "ĠHuxley": 3093,
      "Ġà¤¤à¤°": 3094,
      "ips": 3095,
      "Ġ2006": 3096,
      "Ġactiv": 3097,
      "Ġfamous": 3098,
      "ĠIslam": 3099,
      "ĠJapan": 3100,
      "Ġagricultural": 3101,
      "Ġaltru": 3102,
      "Ġ;": 3103,
      "Ġaward": 3104,
      "Ġfre": 3105,
      "Ġmix": 3106,
      "Ġet": 3107,
      "idge": 3108,
      "ogen": 3109,
      "Ġadapt": 3110,
      "Ġartic": 3111,
      "Ġindic": 3112,
      "Ġincrease": 3113,
      "Ġprofess": 3114,
      "Ġtechniques": 3115,
      "Ġwidely": 3116,
      "Ġavailable": 3117,
      "\")": 3118,
      "rian": 3119,
      "Ġion": 3120,
      "onic": 3121,
      "rel": 3122,
      "Ġcate": 3123,
      "Ġnation": 3124,
      "Ġgive": 3125,
      "Ġstyle": 3126,
      "ĠAnimal": 3127,
      "There": 3128,
      "Ġ2017": 3129,
      "Ġamount": 3130,
      "Ġregard": 3131,
      "Ġconflic": 3132,
      "Ġeventually": 3133,
      "Ã«": 3134,
      "Ġsit": 3135,
      "itation": 3136,
      "Ġpress": 3137,
      "ĠSup": 3138,
      "à¤¥à¤µ": 3139,
      "acks": 3140,
      "Ġtravel": 3141,
      "Ġground": 3142,
      "Ġinterest": 3143,
      "Ġreview": 3144,
      "Ġincreasing": 3145,
      "Ġcorrespond": 3146,
      "ev": 3147,
      "atch": 3148,
      "Ġpos": 3149,
      "ĠAN": 3150,
      "à¤¸à¤¤": 3151,
      "ĠCo": 3152,
      "Ġconvent": 3153,
      "Ġwhose": 3154,
      "assium": 3155,
      "Ġking": 3156,
      "Ġenvironment": 3157,
      "Ġthemselves": 3158,
      "Ġupon": 3159,
      "à¤łà¤¨": 3160,
      "ederal": 3161,
      "tinental": 3162,
      "At": 3163,
      "cular": 3164,
      "ler": 3165,
      "yg": 3166,
      "Ġinstead": 3167,
      "à¤ķà¤¨": 3168,
      "Ġà¤¸à¤¤": 3169,
      "Ġà¤ľà¤²": 3170,
      "ĠMor": 3171,
      "ĠMost": 3172,
      "ĠMiss": 3173,
      "ounter": 3174,
      "phalt": 3175,
      "Ġlett": 3176,
      "Ġà¤ĩà¤¸à¤®": 3177,
      "Ġbecom": 3178,
      "Ġpercent": 3179,
      "Ġinvest": 3180,
      "Ġà¤°à¤¹à¤¤": 3181,
      "Ġblack": 3182,
      "Ġalchemy": 3183,
      "Ġethn": 3184,
      "22": 3185,
      "Con": 3186,
      "cur": 3187,
      "ford": 3188,
      "ving": 3189,
      "Ã§": 3190,
      "Ġsqu": 3191,
      "esium": 3192,
      "ald": 3193,
      "arb": 3194,
      "aring": 3195,
      "à¤®à¤¹": 3196,
      "Ġey": 3197,
      "acus": 3198,
      "Ġwhether": 3199,
      "Ġoutside": 3200,
      "Ġ40": 3201,
      "Ġdistrib": 3202,
      "Ġimpact": 3203,
      "Ġrequired": 3204,
      "Ġparticularly": 3205,
      "Ġprimary": 3206,
      "Ġstructure": 3207,
      "Ġyoung": 3208,
      "Ġcompanies": 3209,
      "ASA": 3210,
      "à¥°": 3211,
      "anced": 3212,
      "à¤¨à¤·à¤¦": 3213,
      "Ġfish": 3214,
      "ĠAct": 3215,
      "Ġlunar": 3216,
      "ĠCity": 3217,
      "ĠPark": 3218,
      "Ġdeg": 3219,
      "Ġlarg": 3220,
      "Ġ50": 3221,
      "Ġalkanes": 3222,
      "key": 3223,
      "Ġvalue": 3224,
      "Ġhydrogen": 3225,
      "Ġgrowth": 3226,
      "Ġsources": 3227,
      "Ġletters": 3228,
      "Cl": 3229,
      "go": 3230,
      "hood": 3231,
      "wide": 3232,
      "Ġtre": 3233,
      "rest": 3234,
      "atal": 3235,
      "Ġnature": 3236,
      "Ġà¤ľà¤°": 3237,
      "Ġste": 3238,
      "ĠList": 3239,
      "Ġsubsequ": 3240,
      "acedon": 3241,
      "Ġforest": 3242,
      "ĠMuseum": 3243,
      "Ġà¤ĵà¤°": 3244,
      "Ġstarted": 3245,
      "Ġalchem": 3246,
      "ĠPersian": 3247,
      "Ġtitle": 3248,
      "Ġlargely": 3249,
      "ey": 3250,
      "light": 3251,
      "hel": 3252,
      "à¤°à¤§": 3253,
      "Ġsaw": 3254,
      "Ġcell": 3255,
      "Ġcases": 3256,
      "orial": 3257,
      "Ġpoin": 3258,
      "Ġtown": 3259,
      "Ġreached": 3260,
      "Ġliving": 3261,
      "amm": 3262,
      "à¤·à¤¯": 3263,
      "ĠPer": 3264,
      "ague": 3265,
      "ĠGerm": 3266,
      "Ġexpect": 3267,
      "ĠDes": 3268,
      "Ġmole": 3269,
      "Ġunivers": 3270,
      "Ġclose": 3271,
      "Ġrecent": 3272,
      "Ġinterp": 3273,
      "Ġ1960": 3274,
      "Ġsmaller": 3275,
      "Ġreturned": 3276,
      "Ġearlier": 3277,
      "ares": 3278,
      "part": 3279,
      "atives": 3280,
      "isions": 3281,
      "Ġcrop": 3282,
      "Ġwent": 3283,
      "Ġeas": 3284,
      "Ġlay": 3285,
      "Ġnuc": 3286,
      "Ġalbedo": 3287,
      "ĠHigh": 3288,
      "ume": 3289,
      "ills": 3290,
      "Ġcompet": 3291,
      "Ġtext": 3292,
      "Ġcenturies": 3293,
      "Ġjud": 3294,
      "ney": 3295,
      "Ġremains": 3296,
      "Ġfeature": 3297,
      "Ġspacecraft": 3298,
      "Ġmathemat": 3299,
      "Ġschools": 3300,
      "References": 3301,
      "aur": 3302,
      "eff": 3303,
      "Ġself": 3304,
      "Ġcit": 3305,
      "à¤¤à¤µ": 3306,
      "icro": 3307,
      "Ġhost": 3308,
      "Ġreact": 3309,
      "Ġà¤ªà¤¡": 3310,
      "Ġ()": 3311,
      "Ġà¤Ĺà¤¤": 3312,
      "Ġà¤īà¤²": 3313,
      "ĠVir": 3314,
      "Ġevents": 3315,
      "Ġprovided": 3316,
      "Ġquant": 3317,
      "Ġtransport": 3318,
      "Ġwriting": 3319,
      "Ġalgorithms": 3320,
      "Ġglobal": 3321,
      "Ġproblem": 3322,
      "Ġalgae": 3323,
      "ĠAege": 3324,
      "cip": 3325,
      "Ġur": 3326,
      "Ġcover": 3327,
      "rown": 3328,
      "ĠMacedon": 3329,
      "ĠBest": 3330,
      "ĠPa": 3331,
      "ĠHun": 3332,
      "Ġspread": 3333,
      "ĠVal": 3334,
      "Ġ2018": 3335,
      "ĠAmericans": 3336,
      "Ġstudies": 3337,
      "Ġoccup": 3338,
      "Ġeffects": 3339,
      "Ġvisit": 3340,
      "Ġ2021": 3341,
      "Ġrelatively": 3342,
      "Ġnumerous": 3343,
      "ibrary": 3344,
      "Ġapproximately": 3345,
      "ias": 3346,
      "ires": 3347,
      "ning": 3348,
      "Ġsem": 3349,
      "à¥Ģ)": 3350,
      "ilities": 3351,
      "oted": 3352,
      "à¤ľà¤§": 3353,
      "ulated": 3354,
      "Ġstage": 3355,
      "Ġconn": 3356,
      "Ġà¤¨à¤µ": 3357,
      "Ġ185": 3358,
      "Ġ2016": 3359,
      "Ġ2005": 3360,
      "Ġemph": 3361,
      "Ġ1990": 3362,
      "Ġwee": 3363,
      "Ġspecific": 3364,
      "ledge": 3365,
      "Ġservice": 3366,
      "Ġmethods": 3367,
      "Ġagriculture": 3368,
      "Ġera": 3369,
      "ĠChristian": 3370,
      "gether": 3371,
      "Ġtend": 3372,
      "Ġput": 3373,
      "Ġtogether": 3374,
      "Ġhom": 3375,
      "omer": 3376,
      "Ġalways": 3377,
      "empor": 3378,
      "ĠGr": 3379,
      "ĠGu": 3380,
      "ĠGra": 3381,
      "Ġviol": 3382,
      "ĠNobel": 3383,
      "ĠOpen": 3384,
      "ipl": 3385,
      "Ġ2007": 3386,
      "Ġsett": 3387,
      "Ġdefined": 3388,
      "Ġdirectly": 3389,
      "Ġnames": 3390,
      "Ġcaused": 3391,
      "Ġspeakers": 3392,
      "External": 3393,
      "ĠAegean": 3394,
      "Am": 3395,
      "En": 3396,
      "cast": 3397,
      "eus": 3398,
      "Ġcer": 3399,
      "Ġcost": 3400,
      "Ġwant": 3401,
      "Ġbond": 3402,
      "Ġbattle": 3403,
      "lement": 3404,
      "Ġhon": 3405,
      "omas": 3406,
      "ĠSince": 3407,
      "Ġwhite": 3408,
      "Ġà¤°à¤ļà¤¨": 3409,
      "Ġexec": 3410,
      "ously": 3411,
      "ources": 3412,
      "Ġ2015": 3413,
      "ensus": 3414,
      "rought": 3415,
      "Ġhighly": 3416,
      "Ġ1970": 3417,
      "Ġ1980": 3418,
      "ĠDemocr": 3419,
      "inem": 3420,
      "Ġsound": 3421,
      "Ġfoot": 3422,
      "leg": 3423,
      "ented": 3424,
      "Ġred": 3425,
      "ĠSemitic": 3426,
      "amer": 3427,
      "uth": 3428,
      "Ġà¤¬à¤¦": 3429,
      "Ġheav": 3430,
      "Ġlearn": 3431,
      "Ġkilled": 3432,
      "Ġ187": 3433,
      "Ġ2019": 3434,
      "Ġ2008": 3435,
      "198": 3436,
      "Ġprovide": 3437,
      "Ġdistinct": 3438,
      "tila": 3439,
      "Ġinfluenced": 3440,
      "Ġannounced": 3441,
      "Ġanarchism": 3442,
      "ĠGeorge": 3443,
      "Ġpolicy": 3444,
      "After": 3445,
      "based": 3446,
      "Ġca": 3447,
      "Ġanat": 3448,
      "ica": 3449,
      "Ġbet": 3450,
      "Ġhyp": 3451,
      "Ġà¤ªà¤¦": 3452,
      "erson": 3453,
      "Ġcontrast": 3454,
      "Ġplaced": 3455,
      "ideo": 3456,
      "Ġvari": 3457,
      "Ġmainly": 3458,
      "Ġpersonal": 3459,
      "Ġà¤ħà¤µà¤§": 3460,
      "Ġindependent": 3461,
      "Ġderived": 3462,
      "Ġbirth": 3463,
      "ech": 3464,
      "off": 3465,
      "win": 3466,
      "Ġtable": 3467,
      "het": 3468,
      "asion": 3469,
      "Ġded": 3470,
      "Ġreb": 3471,
      "ido": 3472,
      "otic": 3473,
      "à¤Łà¤µ": 3474,
      "abul": 3475,
      "Ġriver": 3476,
      "ibility": 3477,
      "Ġadminist": 3478,
      "Ġ2013": 3479,
      "Ġnecess": 3480,
      "ographic": 3481,
      "Ġmedical": 3482,
      "parag": 3483,
      "Ġmonths": 3484,
      "ĠEgyptian": 3485,
      "See": 3486,
      "ders": 3487,
      "hing": 3488,
      "ware": 3489,
      "reak": 3490,
      "Ġinformation": 3491,
      "Ġtowards": 3492,
      "à¤²à¤®": 3493,
      "ĠCath": 3494,
      "Ġonce": 3495,
      "Ġconstitution": 3496,
      "Ġexhib": 3497,
      "Ġà¤Ĩà¤ķ": 3498,
      "ĠJew": 3499,
      "duct": 3500,
      "Ġà¤ªà¤°à¤®": 3501,
      "Ġabacus": 3502,
      "Ġmechan": 3503,
      "Ġvarian": 3504,
      "Ġemb": 3505,
      "Ġfounded": 3506,
      "uese": 3507,
      "ields": 3508,
      "Ġdivided": 3509,
      "SCII": 3510,
      "Ġdialects": 3511,
      "ĠSociety": 3512,
      "à¤¾-": 3513,
      "à¤¨à¤°": 3514,
      "icient": 3515,
      "Ġtoday": 3516,
      "Ġeastern": 3517,
      "iding": 3518,
      "istry": 3519,
      "udd": 3520,
      "antine": 3521,
      "Ġseason": 3522,
      "Ġarm": 3523,
      "Ġrob": 3524,
      "Ġambigu": 3525,
      "ĠĠĠĠĠĠĠĠ": 3526,
      "Ġideas": 3527,
      "Ġphysical": 3528,
      "Ġliterature": 3529,
      "Ġanti": 3530,
      "yr": 3531,
      "Ġtru": 3532,
      "Ġaard": 3533,
      "Ġcop": 3534,
      "Ġang": 3535,
      "Ġfront": 3536,
      "Ġmid": 3537,
      "Ġdyn": 3538,
      "Ġà¤¸à¤ķ": 3539,
      "raction": 3540,
      "othes": 3541,
      "uture": 3542,
      "à¤Łà¤²": 3543,
      "ĠPri": 3544,
      "Ġà¤¯à¤¦": 3545,
      "rents": 3546,
      "Ġprevent": 3547,
      "Ġsubs": 3548,
      "Ġworking": 3549,
      "Ġweight": 3550,
      "Ġcommonly": 3551,
      "Ġperformed": 3552,
      "Ġprivate": 3553,
      "40": 3554,
      "lied": 3555,
      "indu": 3556,
      "Ġclear": 3557,
      "Ġfrog": 3558,
      "Ġborn": 3559,
      "Ġbrought": 3560,
      "Ġmember": 3561,
      "Ġmale": 3562,
      "uls": 3563,
      "ĠTheir": 3564,
      "Ġwhom": 3565,
      "Ġsex": 3566,
      "ighb": 3567,
      "ologists": 3568,
      "Ġcommit": 3569,
      "Ġmodels": 3570,
      "ique": 3571,
      "anned": 3572,
      "ription": 3573,
      "Ġprimarily": 3574,
      "ĠKingdom": 3575,
      "Ġmultiple": 3576,
      "Ġprobably": 3577,
      "Ġcerem": 3578,
      "com": 3579,
      "oe": 3580,
      "ps": 3581,
      "su": 3582,
      "yth": 3583,
      "Ġâ": 3584,
      "Ġsodium": 3585,
      "Ġmag": 3586,
      "Ġmach": 3587,
      "Ġhard": 3588,
      "Ġloss": 3589,
      "à¤¹à¤¨": 3590,
      "Ġnorm": 3591,
      "ows": 3592,
      "ĠHen": 3593,
      "Ġà¤Ńà¤°": 3594,
      "Ġ26": 3595,
      "Ġcontains": 3596,
      "assical": 3597,
      "Ġappell": 3598,
      "Ġ189": 3599,
      "ports": 3600,
      "obs": 3601,
      "Ġassum": 3602,
      "ĠGreece": 3603,
      "Ġà¤ķà¤¹à¤¤": 3604,
      "ĠMuslim": 3605,
      "Ġsource": 3606,
      "Ġpsychology": 3607,
      "Ġhumans": 3608,
      "kn": 3609,
      "ycl": 3610,
      "Ġsolution": 3611,
      "Ġcele": 3612,
      "Ġmight": 3613,
      "Ġtoo": 3614,
      "à¤Ĺà¤µ": 3615,
      "Ġà¤¬à¤¸": 3616,
      "à¤¥à¤¶": 3617,
      "Ġformal": 3618,
      "ressed": 3619,
      "197": 3620,
      "Ġrot": 3621,
      "Ġremain": 3622,
      "Ġsurv": 3623,
      "inese": 3624,
      "airs": 3625,
      "Ġsociety": 3626,
      "Ġserved": 3627,
      "ĠTurkey": 3628,
      "ĠParis": 3629,
      "Ġseparate": 3630,
      "During": 3631,
      "aff": 3632,
      "gn": 3633,
      "put": 3634,
      "rich": 3635,
      "Ġsay": 3636,
      "ises": 3637,
      "ĠAwards": 3638,
      "Ġà¤®à¤¤": 3639,
      "ĠIran": 3640,
      "Ġrule": 3641,
      "Ġcompar": 3642,
      "outheast": 3643,
      "Ġmeet": 3644,
      "hah": 3645,
      "Ġdirected": 3646,
      "Ġà¤ľà¤¬à¤ķ": 3647,
      "Ġobserved": 3648,
      "ĠPortuguese": 3649,
      "Ġgreater": 3650,
      "According": 3651,
      "Ġaction": 3652,
      "à¤°à¤¬": 3653,
      "Ġsens": 3654,
      "Ġfull": 3655,
      "Ġbur": 3656,
      "Ġbound": 3657,
      "rol": 3658,
      "Ġdom": 3659,
      "Ġà¤ªà¤ķ": 3660,
      "ĠTrans": 3661,
      "Ġgr": 3662,
      "ĠMc": 3663,
      "ĠHistory": 3664,
      "ĠEastern": 3665,
      "ĠFort": 3666,
      "ĠFilm": 3667,
      "ĠJames": 3668,
      "ĠThomas": 3669,
      "ĠAsian": 3670,
      "ĠConstitution": 3671,
      "Ġanimal": 3672,
      "ĠSpain": 3673,
      "Ġallowed": 3674,
      "Ġreading": 3675,
      "Ġ2022": 3676,
      "Ġpotassium": 3677,
      "Ġreplaced": 3678,
      "Ġamphibians": 3679,
      "burg": 3680,
      "ien": 3681,
      "van": 3682,
      "à¥¯": 3683,
      "Ġà¤¢": 3684,
      "Ġaudi": 3685,
      "à¤¨à¤¨": 3686,
      "iles": 3687,
      "ĠMiddle": 3688,
      "anded": 3689,
      "ĠAnt": 3690,
      "Ġchlor": 3691,
      "Ġenough": 3692,
      "Ġdiss": 3693,
      "Ġrail": 3694,
      "Ġpresence": 3695,
      "Ġautom": 3696,
      "Ġdiscuss": 3697,
      "Ġreflect": 3698,
      "Ġadded": 3699,
      "Ġkey": 3700,
      "ength": 3701,
      "Ġproperties": 3702,
      "Ġcourts": 3703,
      "Ġbusiness": 3704,
      "iy": 3705,
      "rem": 3706,
      "ato": 3707,
      "Ġwife": 3708,
      "Ġdou": 3709,
      "à¤¸à¤Ĺà¤¢": 3710,
      "à¤²à¤ķ": 3711,
      "à¤µà¤¸": 3712,
      "ĠTex": 3713,
      "Ġ(),": 3714,
      "irt": 3715,
      "Ġà¤ħà¤¬": 3716,
      "Ġà¤ħà¤ļ": 3717,
      "ĠBut": 3718,
      "à¤¶à¤¤": 3719,
      "ĠGulf": 3720,
      "Ġà¤¯à¤ľ": 3721,
      "Ġcompounds": 3722,
      "ĠStandard": 3723,
      "Ġcannot": 3724,
      "Ġ2001": 3725,
      "Ġ2002": 3726,
      "wood": 3727,
      "Ġdistingu": 3728,
      "Ġbooks": 3729,
      "Ġfeed": 3730,
      "Ġidea": 3731,
      "ores": 3732,
      "oul": 3733,
      "Ġà¤®à¤¸": 3734,
      "Ġever": 3735,
      "Ġeight": 3736,
      "Ġlook": 3737,
      "Ġlatter": 3738,
      "ĠMe": 3739,
      "ociation": 3740,
      "Ġà¥©": 3741,
      "ĠChinese": 3742,
      "ĠAsparag": 3743,
      "Ġcreate": 3744,
      "Ġminor": 3745,
      "Ġstrate": 3746,
      "Ġpurp": 3747,
      "ĠRobert": 3748,
      "Ġcareer": 3749,
      "Ġreleased": 3750,
      "ĠDavid": 3751,
      "Ġcirc": 3752,
      "Ġastronauts": 3753,
      "ont": 3754,
      "onstr": 3755,
      "Ġà¤ķà¤Ń": 3756,
      "à¤ķà¤Ł": 3757,
      "olf": 3758,
      "Ġthous": 3759,
      "ĠCa": 3760,
      "Ġstri": 3761,
      "Ġconditions": 3762,
      "ĠHouse": 3763,
      "Ġ22": 3764,
      "Ġà¤Ĩà¤¸": 3765,
      "ĠOcean": 3766,
      "aker": 3767,
      "Ġarts": 3768,
      "izing": 3769,
      "ĠArm": 3770,
      "Ġà¤¸à¤®à¤Ŀ": 3771,
      "Ġ2003": 3772,
      "ikido": 3773,
      "Ġneighb": 3774,
      "ĠAttila": 3775,
      "Ġquest": 3776,
      "ĠSpace": 3777,
      "Ġnearly": 3778,
      "ĠConfederacy": 3779,
      "ĠColumb": 3780,
      "Ġappeared": 3781,
      "ippi": 3782,
      "Ġissues": 3783,
      "Ġsalam": 3784,
      "Ġbranches": 3785,
      "Ġcalcul": 3786,
      "ĠVirgin": 3787,
      "60": 3788,
      "FC": 3789,
      "VA": 3790,
      "Ġten": 3791,
      "Ġbene": 3792,
      "ĠAward": 3793,
      "Ġlingu": 3794,
      "ĠLa": 3795,
      "ateur": 3796,
      "ĠNorthern": 3797,
      "Ġà¤ĩà¤²": 3798,
      "ression": 3799,
      "Ġwhole": 3800,
      "oney": 3801,
      "Ġdecision": 3802,
      "Ġdiscover": 3803,
      "ticles": 3804,
      "Ġdetail": 3805,
      "Ġrequire": 3806,
      "...": 3807,
      "Ġbeginning": 3808,
      "Ġdefeated": 3809,
      "Ġmouthw": 3810,
      "Ġfocus": 3811,
      "Ġpoints": 3812,
      "Ag": 3813,
      "ma": 3814,
      "uals": 3815,
      "inary": 3816,
      "Ġche": 3817,
      "Ġpay": 3818,
      "à¤®à¤²": 3819,
      "omers": 3820,
      "ĠTra": 3821,
      "ĠTenn": 3822,
      "ĠCouncil": 3823,
      "à¤·à¤¤": 3824,
      "Ġ27": 3825,
      "ĠNASA": 3826,
      "elling": 3827,
      "phone": 3828,
      "Ġimm": 3829,
      "Ġtraining": 3830,
      "Ġrock": 3831,
      "à¤Ĩà¤Ī": 3832,
      "hens": 3833,
      "Ġremov": 3834,
      "Ġslaves": 3835,
      "Ġ60": 3836,
      "Ġexperience": 3837,
      "ĠAngolan": 3838,
      "Ġà¤Ĳà¤¤": 3839,
      "Ġà¥¨à¥¦": 3840,
      "Ġcomplete": 3841,
      "Ġatomic": 3842,
      "Ġborder": 3843,
      "Ġà¤ĭà¤Ĺ": 3844,
      "Ġsitu": 3845,
      "Ap": 3846,
      "pid": 3847,
      "writ": 3848,
      "Ä±": 3849,
      "Ġfell": 3850,
      "olved": 3851,
      "Ġreject": 3852,
      "ĠTV": 3853,
      "lying": 3854,
      "usc": 3855,
      "ĠRoyal": 3856,
      "ĠNether": 3857,
      "ĠFirst": 3858,
      "à¤ıà¤¸": 3859,
      "Ġshown": 3860,
      "ĠStud": 3861,
      "igned": 3862,
      "Ġ1999": 3863,
      "Ġcontinu": 3864,
      "Ġoriginally": 3865,
      "Ġreligion": 3866,
      "Ġdemonstr": 3867,
      "Ġappears": 3868,
      "Ġsoldiers": 3869,
      "Ġpaper": 3870,
      "ĠTechn": 3871,
      "Ġadopted": 3872,
      "Ġlikely": 3873,
      "%)": 3874,
      "Ġ/": 3875,
      "ĪĴ": 3876,
      "Ġour": 3877,
      "ancy": 3878,
      "Ġwide": 3879,
      "asons": 3880,
      "à¤µà¤°à¤£": 3881,
      "ola": 3882,
      "ĠShah": 3883,
      "etro": 3884,
      "ĠCur": 3885,
      "Ġislands": 3886,
      "unc": 3887,
      "oper": 3888,
      "elled": 3889,
      "ĠKore": 3890,
      "Ġparty": 3891,
      "Ġpregn": 3892,
      "ranean": 3893,
      "issippi": 3894,
      "Ġregular": 3895,
      "Ġtemple": 3896,
      "Ġstatus": 3897,
      "Ġplayed": 3898,
      "ready": 3899,
      "Ġlaunched": 3900,
      "Ġdocument": 3901,
      "Ġfrequ": 3902,
      "Ġemphas": 3903,
      "actions": 3904,
      "ground": 3905,
      "ns": 3906,
      "rim": 3907,
      "ÃŃ": 3908,
      "onse": 3909,
      "à¤°à¤ª": 3910,
      "Ġsaf": 3911,
      "Ġsense": 3912,
      "itt": 3913,
      "Ġfuture": 3914,
      "ĠAld": 3915,
      "Ġhours": 3916,
      "Ġnomin": 3917,
      "ĠIf": 3918,
      "Ġstory": 3919,
      "anders": 3920,
      "Ġdeep": 3921,
      "Ġvideo": 3922,
      "ĠFrom": 3923,
      "Ġà¤ĩà¤¨à¤ķ": 3924,
      "Ġà¤¤à¤¤": 3925,
      "Ġplants": 3926,
      "ibly": 3927,
      "Ġobt": 3928,
      "Ġactive": 3929,
      "Ġdecided": 3930,
      "Ġservices": 3931,
      "iterranean": 3932,
      "ecause": 3933,
      "Ġcommunity": 3934,
      "strong": 3935,
      "Ġinvolved": 3936,
      "Ġbehind": 3937,
      "mitted": 3938,
      "Ġvictory": 3939,
      "Ġcaesium": 3940,
      "known": 3941,
      "Ġcelebr": 3942,
      "ca": 3943,
      "ira": 3944,
      "ror": 3945,
      "view": 3946,
      "Ġult": 3947,
      "Ġcross": 3948,
      "Ġnight": 3949,
      "Ġstated": 3950,
      "Ġconduct": 3951,
      "à¤Łà¤ķ": 3952,
      "ĠHol": 3953,
      "estic": 3954,
      "estival": 3955,
      "ĠGen": 3956,
      "Ġdecre": 3957,
      "Ġcome": 3958,
      "Ġrat": 3959,
      "Ġplaces": 3960,
      "ĠContinental": 3961,
      "liament": 3962,
      "Ġmuseum": 3963,
      "Ġpossess": 3964,
      "Ġvalues": 3965,
      "ĠBCE": 3966,
      "ĠBlack": 3967,
      "ĠMediterranean": 3968,
      "ĠCompany": 3969,
      "Ġchemical": 3970,
      "ehic": 3971,
      "Ġconflict": 3972,
      "25": 3973,
      "Af": 3974,
      "Ġmig": 3975,
      "Ġmakes": 3976,
      "Ġhapp": 3977,
      "ellect": 3978,
      "ĠSm": 3979,
      "ĠMass": 3980,
      "ership": 3981,
      "Ġstop": 3982,
      "à¤¥à¤°": 3983,
      "ĠGovern": 3984,
      "ables": 3985,
      "Ġà¤Ĺà¤£": 3986,
      "à¤Ńà¤µ": 3987,
      "rick": 3988,
      "Ġphon": 3989,
      "ampions": 3990,
      "aching": 3991,
      "issions": 3992,
      "Ġsettle": 3993,
      "vey": 3994,
      "lled": 3995,
      "ĠReg": 3996,
      "Ġpractice": 3997,
      "Ġterritories": 3998,
      "Ġpotential": 3999,
      "ĠTurkish": 4000,
      "ĠCatholic": 4001,
      "ĠVirginia": 4002,
      "comm": 4003,
      "mar": 4004,
      "erc": 4005,
      "enins": 4006,
      "arc": 4007,
      "Ġfreed": 4008,
      "road": 4009,
      "Ġdraw": 4010,
      "Ġrecon": 4011,
      "Ġlove": 4012,
      "ĠSer": 4013,
      "Ġà¤µà¤¨": 4014,
      "Ġalready": 4015,
      "anda": 4016,
      "Ġvary": 4017,
      "ĠFarm": 4018,
      "Ġchall": 4019,
      "Ġcontain": 4020,
      "Ġcenter": 4021,
      "195": 4022,
      "Ġacqu": 4023,
      "Ġpeace": 4024,
      "ophical": 4025,
      "à¤ħà¤°": 4026,
      "Ġresulting": 4027,
      "Ġeffective": 4028,
      "Ġà¤Ľà¤¤": 4029,
      "Ġoperations": 4030,
      "Ġconstruct": 4031,
      "Ġcomplet": 4032,
      "ĠAustroasiatic": 4033,
      "Ġrespons": 4034,
      "Ġhistorical": 4035,
      "ĠQu": 4036,
      "ieval": 4037,
      "emporary": 4038,
      "aph": 4039,
      "cest": 4040,
      "cies": 4041,
      "field": 4042,
      "hab": 4043,
      "king": 4044,
      "pir": 4045,
      "anks": 4046,
      "à¥Ģ.": 4047,
      "ico": 4048,
      "ĠASCII": 4049,
      "Ġdivers": 4050,
      "Ġreaction": 4051,
      "Ġlithium": 4052,
      "elt": 4053,
      "Ġget": 4054,
      "Ġà¤¬à¤¤": 4055,
      "ĠLibrary": 4056,
      "ĠRich": 4057,
      "ĠWe": 4058,
      "Ġhero": 4059,
      "Ġseven": 4060,
      "berg": 4061,
      "alled": 4062,
      "ference": 4063,
      "Ġdisplay": 4064,
      "ĠChurch": 4065,
      "Ġvarieties": 4066,
      "Ġpreserv": 4067,
      "à¤ĩà¤¸": 4068,
      "Ġcollection": 4069,
      "ĠAndy": 4070,
      "Ġresulted": 4071,
      "Ġclaimed": 4072,
      "Ġbasis": 4073,
      "Ġlevels": 4074,
      "elesc": 4075,
      "unicip": 4076,
      "ĠGermany": 4077,
      "Ġcitiz": 4078,
      "Ġbetter": 4079,
      "ĠNetherlands": 4080,
      "Wh": 4081,
      "ection": 4082,
      "work": 4083,
      "Ġcut": 4084,
      "Ġfran": 4085,
      "idents": 4086,
      "utive": 4087,
      "ĠGrant": 4088,
      "ĠGroup": 4089,
      "ĠUN": 4090,
      "ĠOtt": 4091,
      "earch": 4092,
      "Ġspect": 4093,
      "Ġjour": 4094,
      "Ġbelow": 4095
    },
    "merges": [
      [
        "à",
        "¤"
      ],
      [
        "à",
        "¥"
      ],
      [
        "Ġ",
        "à¤"
      ],
      [
        "Ġ",
        "t"
      ],
      [
        "Ġ",
        "a"
      ],
      [
        "h",
        "e"
      ],
      [
        "à¤",
        "¾"
      ],
      [
        "i",
        "n"
      ],
      [
        "à¥",
        "į"
      ],
      [
        "e",
        "r"
      ],
      [
        "Ġt",
        "he"
      ],
      [
        "o",
        "n"
      ],
      [
        "à¤",
        "°"
      ],
      [
        "r",
        "e"
      ],
      [
        "Ġ",
        "o"
      ],
      [
        "à¥",
        "ĩ"
      ],
      [
        "a",
        "t"
      ],
      [
        "a",
        "n"
      ],
      [
        "à¤",
        "¿"
      ],
      [
        "Ġ",
        "s"
      ],
      [
        "e",
        "n"
      ],
      [
        "e",
        "d"
      ],
      [
        "i",
        "s"
      ],
      [
        "e",
        "s"
      ],
      [
        "a",
        "l"
      ],
      [
        "i",
        "t"
      ],
      [
        "Ġ",
        "c"
      ],
      [
        "Ġ",
        "w"
      ],
      [
        "Ġo",
        "f"
      ],
      [
        "o",
        "r"
      ],
      [
        "Ġa",
        "n"
      ],
      [
        "Ġà¤",
        "ķ"
      ],
      [
        "à¤",
        "Ĥ"
      ],
      [
        "a",
        "r"
      ],
      [
        "à¤",
        "¤"
      ],
      [
        "à¤",
        "¨"
      ],
      [
        "à¥",
        "Ģ"
      ],
      [
        "Ġ",
        "in"
      ],
      [
        "i",
        "c"
      ],
      [
        "Ġ",
        "f"
      ],
      [
        "Ġ",
        "p"
      ],
      [
        "Ġ",
        "b"
      ],
      [
        "Ġan",
        "d"
      ],
      [
        "i",
        "on"
      ],
      [
        "à¤",
        "ķ"
      ],
      [
        "à¤",
        "¯"
      ],
      [
        "Ġ",
        "A"
      ],
      [
        "r",
        "o"
      ],
      [
        "in",
        "g"
      ],
      [
        "Ġ",
        "m"
      ],
      [
        "a",
        "s"
      ],
      [
        "à¥",
        "ĭ"
      ],
      [
        "Ġt",
        "o"
      ],
      [
        "l",
        "e"
      ],
      [
        "Ġ",
        "d"
      ],
      [
        "à¤",
        "¸"
      ],
      [
        "Ġà¤",
        "¸"
      ],
      [
        "Ġ",
        "h"
      ],
      [
        "o",
        "u"
      ],
      [
        "à¤",
        "²"
      ],
      [
        "Ġà¤",
        "¹"
      ],
      [
        "en",
        "t"
      ],
      [
        "Ġà¤",
        "®"
      ],
      [
        "à¤",
        "µ"
      ],
      [
        "à¤",
        "®"
      ],
      [
        "s",
        "t"
      ],
      [
        "i",
        "l"
      ],
      [
        "o",
        "l"
      ],
      [
        "o",
        "m"
      ],
      [
        "à¤",
        "¦"
      ],
      [
        "Ġ",
        "re"
      ],
      [
        "Ġ",
        "e"
      ],
      [
        "c",
        "t"
      ],
      [
        "à¥",
        "Ī"
      ],
      [
        "Ġ",
        "l"
      ],
      [
        "Ġà¤",
        "ª"
      ],
      [
        "Ġ",
        "T"
      ],
      [
        "e",
        "l"
      ],
      [
        "Ġt",
        "h"
      ],
      [
        "à¤",
        "¹"
      ],
      [
        "Ġ",
        "n"
      ],
      [
        "à¥",
        "ģ"
      ],
      [
        "Ġ",
        "("
      ],
      [
        "Ġ",
        "S"
      ],
      [
        "at",
        "ion"
      ],
      [
        "l",
        "y"
      ],
      [
        "c",
        "h"
      ],
      [
        "e",
        "t"
      ],
      [
        "i",
        "m"
      ],
      [
        "u",
        "s"
      ],
      [
        "Ġ",
        "1"
      ],
      [
        "u",
        "r"
      ],
      [
        "i",
        "d"
      ],
      [
        "a",
        "m"
      ],
      [
        "i",
        "v"
      ],
      [
        "à¤",
        "ª"
      ],
      [
        "Ġ",
        "C"
      ],
      [
        "à¥",
        "¤"
      ],
      [
        "à¤",
        "Ĺ"
      ],
      [
        "à¥ĩ",
        "à¤Ĥ"
      ],
      [
        "c",
        "e"
      ],
      [
        "Ġ",
        "is"
      ],
      [
        "r",
        "a"
      ],
      [
        "o",
        "t"
      ],
      [
        "u",
        "t"
      ],
      [
        "Ġa",
        "s"
      ],
      [
        "Ġà¤",
        "µ"
      ],
      [
        "Ġf",
        "or"
      ],
      [
        "u",
        "n"
      ],
      [
        "à¤",
        "ľ"
      ],
      [
        "i",
        "g"
      ],
      [
        "Ġb",
        "e"
      ],
      [
        "Ġà¤",
        "ľ"
      ],
      [
        "Ġ",
        "g"
      ],
      [
        "a",
        "d"
      ],
      [
        "is",
        "t"
      ],
      [
        "à¤",
        "·"
      ],
      [
        "Ġ",
        "M"
      ],
      [
        "Ġ",
        "on"
      ],
      [
        "it",
        "h"
      ],
      [
        "u",
        "l"
      ],
      [
        "i",
        "r"
      ],
      [
        "Ġà¤",
        "ħ"
      ],
      [
        "Ġ",
        "I"
      ],
      [
        "er",
        "s"
      ],
      [
        "Ġ",
        "B"
      ],
      [
        "Ġa",
        "l"
      ],
      [
        "ĠT",
        "he"
      ],
      [
        "t",
        "h"
      ],
      [
        "à¤",
        "¶"
      ],
      [
        "Ġs",
        "t"
      ],
      [
        "he",
        "r"
      ],
      [
        "o",
        "w"
      ],
      [
        "Ġc",
        "on"
      ],
      [
        "à¥",
        "Ĥ"
      ],
      [
        "Ġw",
        "as"
      ],
      [
        "à¤",
        "Ł"
      ],
      [
        "Ġ",
        "P"
      ],
      [
        "e",
        "m"
      ],
      [
        "Ġ",
        "H"
      ],
      [
        "Ġw",
        "ith"
      ],
      [
        "v",
        "er"
      ],
      [
        "u",
        "m"
      ],
      [
        "o",
        "s"
      ],
      [
        "Ġb",
        "y"
      ],
      [
        "Ġth",
        "at"
      ],
      [
        "Ġà¤",
        "¨"
      ],
      [
        "es",
        "t"
      ],
      [
        "Ġà¤",
        "¬"
      ],
      [
        "à¥ĭ",
        "à¤Ĥ"
      ],
      [
        "à¤",
        "§"
      ],
      [
        "an",
        "d"
      ],
      [
        "o",
        "p"
      ],
      [
        "Ġw",
        "h"
      ],
      [
        "Ġà¤",
        "¦"
      ],
      [
        "Ġp",
        "ro"
      ],
      [
        "Ġà¤",
        "°"
      ],
      [
        "t",
        "er"
      ],
      [
        "à¤",
        "¬"
      ],
      [
        "à¤",
        "¥"
      ],
      [
        "Ġà¤",
        "Ń"
      ],
      [
        "Ġ",
        "2"
      ],
      [
        "i",
        "es"
      ],
      [
        "Ġo",
        "r"
      ],
      [
        "o",
        "d"
      ],
      [
        "'",
        "s"
      ],
      [
        "Ġ",
        "E"
      ],
      [
        "a",
        "g"
      ],
      [
        "à¤",
        "£"
      ],
      [
        "Ġa",
        "re"
      ],
      [
        "a",
        "v"
      ],
      [
        "i",
        "f"
      ],
      [
        "a",
        "y"
      ],
      [
        "Ġ",
        "L"
      ],
      [
        "Ġ",
        "\""
      ],
      [
        "Ġ",
        "G"
      ],
      [
        "ro",
        "m"
      ],
      [
        "Ġd",
        "e"
      ],
      [
        "at",
        "e"
      ],
      [
        "Ġà¤",
        "Ķ"
      ],
      [
        "Ġ",
        "v"
      ],
      [
        "a",
        "b"
      ],
      [
        "Ġ",
        "R"
      ],
      [
        "re",
        "s"
      ],
      [
        "Ġ",
        "it"
      ],
      [
        "Ġà¤Ķ",
        "à¤°"
      ],
      [
        "Ġs",
        "u"
      ],
      [
        "Ġ",
        "W"
      ],
      [
        "Ġc",
        "om"
      ],
      [
        "p",
        "p"
      ],
      [
        "i",
        "an"
      ],
      [
        "à¥Ī",
        "à¥¤"
      ],
      [
        "ou",
        "n"
      ],
      [
        "Ġ",
        "Ċ"
      ],
      [
        "à¤",
        "¡"
      ],
      [
        "Ġ",
        "N"
      ],
      [
        "a",
        "c"
      ],
      [
        "0",
        "0"
      ],
      [
        "u",
        "d"
      ],
      [
        "Ġ1",
        "9"
      ],
      [
        "à¤",
        "ļ"
      ],
      [
        "Ġà¤",
        "Ĺ"
      ],
      [
        "Ġa",
        "t"
      ],
      [
        "Ġf",
        "rom"
      ],
      [
        "Ġ",
        "F"
      ],
      [
        "Ġà¤",
        "²"
      ],
      [
        "Ġe",
        "x"
      ],
      [
        "a",
        "in"
      ],
      [
        "or",
        "t"
      ],
      [
        "Ġ",
        "D"
      ],
      [
        "it",
        "y"
      ],
      [
        "o",
        "c"
      ],
      [
        "ic",
        "al"
      ],
      [
        "Ġà¤",
        "ī"
      ],
      [
        "r",
        "i"
      ],
      [
        "Ġ",
        "he"
      ],
      [
        "o",
        "g"
      ],
      [
        "an",
        "t"
      ],
      [
        "q",
        "u"
      ],
      [
        "ĠI",
        "n"
      ],
      [
        "l",
        "d"
      ],
      [
        "Ġm",
        "o"
      ],
      [
        "Ġà¤",
        "ĩ"
      ],
      [
        "p",
        "e"
      ],
      [
        "Ġà¤",
        "Ĩ"
      ],
      [
        "i",
        "a"
      ],
      [
        "ic",
        "h"
      ],
      [
        "Ġà¤",
        "¯"
      ],
      [
        "i",
        "al"
      ],
      [
        "Ġh",
        "is"
      ],
      [
        "à¤",
        "ĸ"
      ],
      [
        "Ġà¤",
        "¶"
      ],
      [
        "iv",
        "e"
      ],
      [
        "â",
        "Ģ"
      ],
      [
        "at",
        "ed"
      ],
      [
        "Ġs",
        "e"
      ],
      [
        "Ġà¤",
        "¤"
      ],
      [
        "il",
        "l"
      ],
      [
        "es",
        "s"
      ],
      [
        "à¤",
        "Ń"
      ],
      [
        "à¤°",
        "à¤¤"
      ],
      [
        "Ġ",
        "U"
      ],
      [
        "à¤",
        "¼"
      ],
      [
        "à¥Ī",
        "à¤Ĥ"
      ],
      [
        "Ġ",
        "r"
      ],
      [
        "Ġ",
        "O"
      ],
      [
        "g",
        "h"
      ],
      [
        "m",
        "ent"
      ],
      [
        "Ġ",
        "un"
      ],
      [
        "p",
        "t"
      ],
      [
        "Ġ",
        "J"
      ],
      [
        "Ġ",
        "us"
      ],
      [
        "Ġà¤",
        "ı"
      ],
      [
        "ar",
        "t"
      ],
      [
        "s",
        "e"
      ],
      [
        "t",
        "her"
      ],
      [
        "ĠA",
        "l"
      ],
      [
        "ig",
        "h"
      ],
      [
        "ar",
        "d"
      ],
      [
        "b",
        "er"
      ],
      [
        "Ġwh",
        "ich"
      ],
      [
        "u",
        "re"
      ],
      [
        "el",
        "l"
      ],
      [
        "a",
        "k"
      ],
      [
        "d",
        "u"
      ],
      [
        "ĠA",
        "n"
      ],
      [
        "ar",
        "y"
      ],
      [
        "on",
        "g"
      ],
      [
        "e",
        "w"
      ],
      [
        "c",
        "l"
      ],
      [
        "en",
        "d"
      ],
      [
        "av",
        "e"
      ],
      [
        "al",
        "l"
      ],
      [
        "p",
        "h"
      ],
      [
        "Ġc",
        "h"
      ],
      [
        "à¤",
        "ı"
      ],
      [
        "ct",
        "ion"
      ],
      [
        "Ġà¤ª",
        "à¤°"
      ],
      [
        "er",
        "e"
      ],
      [
        ")",
        ","
      ],
      [
        "an",
        "g"
      ],
      [
        "ou",
        "s"
      ],
      [
        "e",
        "ar"
      ],
      [
        "as",
        "t"
      ],
      [
        "Ġa",
        "r"
      ],
      [
        "Ġn",
        "ot"
      ],
      [
        "r",
        "it"
      ],
      [
        "Ġw",
        "ere"
      ],
      [
        "ou",
        "r"
      ],
      [
        "Ġ",
        "le"
      ],
      [
        "i",
        "p"
      ],
      [
        "ul",
        "t"
      ],
      [
        "an",
        "s"
      ],
      [
        "à¥",
        "ĥ"
      ],
      [
        "Ġw",
        "or"
      ],
      [
        "u",
        "p"
      ],
      [
        "e",
        "ct"
      ],
      [
        "T",
        "he"
      ],
      [
        "Ġa",
        "b"
      ],
      [
        "m",
        "er"
      ],
      [
        "Ġcom",
        "p"
      ],
      [
        "Ġh",
        "ave"
      ],
      [
        "re",
        "d"
      ],
      [
        "ol",
        "l"
      ],
      [
        "Ġ2",
        "0"
      ],
      [
        "i",
        "z"
      ],
      [
        "Ġcon",
        "t"
      ],
      [
        "s",
        "o"
      ],
      [
        "Ġ",
        "K"
      ],
      [
        "in",
        "e"
      ],
      [
        "is",
        "h"
      ],
      [
        "as",
        "s"
      ],
      [
        "p",
        "er"
      ],
      [
        "à¤",
        "Ī"
      ],
      [
        "om",
        "e"
      ],
      [
        "Ġà¤ĩ",
        "à¤¸"
      ],
      [
        "c",
        "c"
      ],
      [
        "ion",
        "s"
      ],
      [
        "r",
        "u"
      ],
      [
        "o",
        "v"
      ],
      [
        "d",
        "er"
      ],
      [
        "Ġh",
        "as"
      ],
      [
        "ation",
        "s"
      ],
      [
        "en",
        "ce"
      ],
      [
        "Ġin",
        "t"
      ],
      [
        "at",
        "es"
      ],
      [
        "Ġs",
        "h"
      ],
      [
        "igh",
        "t"
      ],
      [
        "ĠS",
        "t"
      ],
      [
        "a",
        "ct"
      ],
      [
        "g",
        "e"
      ],
      [
        "Ġal",
        "so"
      ],
      [
        "o",
        "re"
      ],
      [
        "Ġit",
        "s"
      ],
      [
        "am",
        "e"
      ],
      [
        "r",
        "y"
      ],
      [
        "oun",
        "t"
      ],
      [
        "Ġà¤ı",
        "à¤ķ"
      ],
      [
        "Ġp",
        "l"
      ],
      [
        "f",
        "f"
      ],
      [
        "Ġ",
        "k"
      ],
      [
        "at",
        "er"
      ],
      [
        "al",
        "ly"
      ],
      [
        "i",
        "b"
      ],
      [
        "Ġà¤",
        "ļ"
      ],
      [
        "Ġthe",
        "ir"
      ],
      [
        "ol",
        "og"
      ],
      [
        "à¤¾",
        "à¤Ĥ"
      ],
      [
        "ag",
        "e"
      ],
      [
        "Ġh",
        "ad"
      ],
      [
        "Ġa",
        "d"
      ],
      [
        "re",
        "e"
      ],
      [
        "id",
        "e"
      ],
      [
        "a",
        "p"
      ],
      [
        "u",
        "b"
      ],
      [
        "ĠU",
        "n"
      ],
      [
        "Ġw",
        "he"
      ],
      [
        "à¤",
        "ģ"
      ],
      [
        "Ġo",
        "ther"
      ],
      [
        "Ġà¤",
        "¥"
      ],
      [
        "cl",
        "ud"
      ],
      [
        "an",
        "y"
      ],
      [
        "à¥Īà¤Ĥ",
        "à¥¤"
      ],
      [
        "Ġ",
        "y"
      ],
      [
        "i",
        "re"
      ],
      [
        "or",
        "y"
      ],
      [
        "k",
        "s"
      ],
      [
        "a",
        "ce"
      ],
      [
        "el",
        "y"
      ],
      [
        "p",
        "l"
      ],
      [
        "Ġa",
        "pp"
      ],
      [
        "ou",
        "ld"
      ],
      [
        "Ġb",
        "ut"
      ],
      [
        "âĢ",
        "ĵ"
      ],
      [
        "ig",
        "n"
      ],
      [
        "ir",
        "st"
      ],
      [
        "Ġ",
        "en"
      ],
      [
        "Ġ",
        "im"
      ],
      [
        "f",
        "er"
      ],
      [
        "r",
        "ic"
      ],
      [
        "Ġc",
        "l"
      ],
      [
        "er",
        "m"
      ],
      [
        "ou",
        "t"
      ],
      [
        "it",
        "ion"
      ],
      [
        "Ġs",
        "p"
      ],
      [
        "Ġà¤ħ",
        "à¤¨"
      ],
      [
        ")",
        "."
      ],
      [
        "Ġre",
        "s"
      ],
      [
        "Ġal",
        "l"
      ],
      [
        "Ġp",
        "art"
      ],
      [
        "c",
        "on"
      ],
      [
        "Ġ",
        "à¥"
      ],
      [
        "ĠA",
        "r"
      ],
      [
        "Ġà¤¸",
        "à¤®"
      ],
      [
        "Ġin",
        "clud"
      ],
      [
        "c",
        "es"
      ],
      [
        "o",
        "ver"
      ],
      [
        "Ġ1",
        "8"
      ],
      [
        "Ġd",
        "is"
      ],
      [
        "i",
        "e"
      ],
      [
        "Ġf",
        "irst"
      ],
      [
        "t",
        "s"
      ],
      [
        "Ġt",
        "e"
      ],
      [
        "Ġà¤¯",
        "à¤¹"
      ],
      [
        "à¤¾",
        "à¥¤"
      ],
      [
        "à¥",
        "Į"
      ],
      [
        "oun",
        "d"
      ],
      [
        "re",
        "n"
      ],
      [
        "e",
        "p"
      ],
      [
        "Ġon",
        "e"
      ],
      [
        "c",
        "ed"
      ],
      [
        "Ġà¤ķ",
        "à¤°"
      ],
      [
        "à¤¤",
        "à¤°"
      ],
      [
        "ĠC",
        "h"
      ],
      [
        "im",
        "e"
      ],
      [
        "o",
        "st"
      ],
      [
        "is",
        "m"
      ],
      [
        "à¤ª",
        "à¤¨"
      ],
      [
        "Ġth",
        "is"
      ],
      [
        "Ġbe",
        "c"
      ],
      [
        "Ġ",
        "V"
      ],
      [
        "Ġc",
        "an"
      ],
      [
        "ab",
        "le"
      ],
      [
        "u",
        "st"
      ],
      [
        "f",
        "ter"
      ],
      [
        "r",
        "on"
      ],
      [
        "Ġp",
        "er"
      ],
      [
        "i",
        "le"
      ],
      [
        "ĠT",
        "h"
      ],
      [
        "o",
        "k"
      ],
      [
        "Ġ20",
        "1"
      ],
      [
        "Ġbe",
        "en"
      ],
      [
        "al",
        "s"
      ],
      [
        "mer",
        "ic"
      ],
      [
        "an",
        "ce"
      ],
      [
        "Ġmo",
        "st"
      ],
      [
        "un",
        "d"
      ],
      [
        "Ġfor",
        "m"
      ],
      [
        "res",
        "s"
      ],
      [
        "Ġc",
        "ent"
      ],
      [
        "e",
        "en"
      ],
      [
        "he",
        "d"
      ],
      [
        "ation",
        "al"
      ],
      [
        "Ġsu",
        "ch"
      ],
      [
        "or",
        "d"
      ],
      [
        "ow",
        "n"
      ],
      [
        "Ġus",
        "ed"
      ],
      [
        "u",
        "e"
      ],
      [
        "Ġa",
        "g"
      ],
      [
        "ou",
        "gh"
      ],
      [
        "ter",
        "n"
      ],
      [
        "Ġcom",
        "m"
      ],
      [
        "Ġmo",
        "re"
      ],
      [
        "ur",
        "ing"
      ],
      [
        "ac",
        "k"
      ],
      [
        "I",
        "n"
      ],
      [
        "Ġs",
        "pe"
      ],
      [
        "à¤°",
        "à¤£"
      ],
      [
        "Ġcon",
        "s"
      ],
      [
        "ĠH",
        "e"
      ],
      [
        "Ġ2",
        "00"
      ],
      [
        "à¤",
        "ŀ"
      ],
      [
        "1",
        "9"
      ],
      [
        "er",
        "v"
      ],
      [
        "or",
        "m"
      ],
      [
        "Ġp",
        "h"
      ],
      [
        "v",
        "el"
      ],
      [
        "Ġwh",
        "o"
      ],
      [
        "p",
        "ort"
      ],
      [
        "er",
        "n"
      ],
      [
        "Ġre",
        "l"
      ],
      [
        "i",
        "k"
      ],
      [
        "l",
        "ic"
      ],
      [
        "Ġ",
        "3"
      ],
      [
        "u",
        "gh"
      ],
      [
        "Ġs",
        "c"
      ],
      [
        "Ġt",
        "ra"
      ],
      [
        "w",
        "o"
      ],
      [
        "Ġ",
        "ro"
      ],
      [
        "ent",
        "s"
      ],
      [
        "en",
        "s"
      ],
      [
        "it",
        "ed"
      ],
      [
        "ang",
        "u"
      ],
      [
        "Ġs",
        "y"
      ],
      [
        "Ġthe",
        "y"
      ],
      [
        "ĠA",
        "meric"
      ],
      [
        "Ġth",
        "an"
      ],
      [
        "ic",
        "e"
      ],
      [
        "Ġn",
        "e"
      ],
      [
        "Ġpro",
        "du"
      ],
      [
        "Ġy",
        "ear"
      ],
      [
        "os",
        "e"
      ],
      [
        "Ġm",
        "e"
      ],
      [
        "Ġint",
        "o"
      ],
      [
        "or",
        "s"
      ],
      [
        "ĠA",
        "p"
      ],
      [
        "à¤¾",
        "à¤ģ"
      ],
      [
        "am",
        "p"
      ],
      [
        "à¤¾",
        ","
      ],
      [
        "ĠA",
        "s"
      ],
      [
        "t",
        "e"
      ],
      [
        "il",
        "m"
      ],
      [
        "i",
        "um"
      ],
      [
        "Ġa",
        "m"
      ],
      [
        "a",
        "ch"
      ],
      [
        "Ġg",
        "ro"
      ],
      [
        "ar",
        "k"
      ],
      [
        "ic",
        "s"
      ],
      [
        "Ġl",
        "ar"
      ],
      [
        "Â",
        "ł"
      ],
      [
        "Ġp",
        "re"
      ],
      [
        "a",
        "us"
      ],
      [
        "l",
        "and"
      ],
      [
        "Ġa",
        "c"
      ],
      [
        "Ġm",
        "et"
      ],
      [
        "Ġe",
        "v"
      ],
      [
        "ist",
        "s"
      ],
      [
        "re",
        "at"
      ],
      [
        "ĠI",
        "t"
      ],
      [
        "Ġd",
        "es"
      ],
      [
        "olog",
        "y"
      ],
      [
        "r",
        "an"
      ],
      [
        "Ġà¤Ĺ",
        "à¤¯"
      ],
      [
        "i",
        "ed"
      ],
      [
        "le",
        "ct"
      ],
      [
        "o",
        "b"
      ],
      [
        "Ġ",
        "Ġ"
      ],
      [
        "à¤Ĺ",
        "à¤°"
      ],
      [
        "l",
        "es"
      ],
      [
        "Ġo",
        "ver"
      ],
      [
        "Ġ",
        "ra"
      ],
      [
        "et",
        "w"
      ],
      [
        "à¤°",
        "à¤ķ"
      ],
      [
        "ur",
        "y"
      ],
      [
        "i",
        "ous"
      ],
      [
        "in",
        "c"
      ],
      [
        "Ġsu",
        "b"
      ],
      [
        "it",
        "e"
      ],
      [
        "Ġc",
        "ount"
      ],
      [
        "à¤¿",
        "à¤Ĥ"
      ],
      [
        "is",
        "s"
      ],
      [
        "ul",
        "ar"
      ],
      [
        "ĠW",
        "ar"
      ],
      [
        "Ġl",
        "angu"
      ],
      [
        "à¤",
        "«"
      ],
      [
        "en",
        "er"
      ],
      [
        "if",
        "ic"
      ],
      [
        "Ġs",
        "ome"
      ],
      [
        "ri",
        "b"
      ],
      [
        "ĠC",
        "on"
      ],
      [
        "à¥Ģ",
        "à¤Ĥ"
      ],
      [
        "Ġ",
        "j"
      ],
      [
        "à¤",
        "ĵ"
      ],
      [
        "Ġt",
        "wo"
      ],
      [
        "Ġà¤",
        "ĸ"
      ],
      [
        "oll",
        "o"
      ],
      [
        "Ġa",
        "fter"
      ],
      [
        "Ġre",
        "g"
      ],
      [
        "Ġf",
        "ilm"
      ],
      [
        "ĠA",
        "t"
      ],
      [
        "à¤",
        "Ĩ"
      ],
      [
        "Ġn",
        "um"
      ],
      [
        "t",
        "ed"
      ],
      [
        "Ġar",
        "t"
      ],
      [
        "Ġre",
        "c"
      ],
      [
        "etw",
        "een"
      ],
      [
        "Ġà¤",
        "§"
      ],
      [
        "t",
        "en"
      ],
      [
        "Ġw",
        "ould"
      ],
      [
        "i",
        "et"
      ],
      [
        "le",
        "x"
      ],
      [
        "ou",
        "th"
      ],
      [
        "Ġm",
        "od"
      ],
      [
        "ut",
        "ion"
      ],
      [
        "Ġm",
        "any"
      ],
      [
        "ro",
        "ugh"
      ],
      [
        "as",
        "ed"
      ],
      [
        "y",
        "s"
      ],
      [
        "w",
        "ard"
      ],
      [
        "it",
        "ies"
      ],
      [
        "ing",
        "s"
      ],
      [
        "Ġat",
        "t"
      ],
      [
        "§",
        "à¥"
      ],
      [
        "on",
        "e"
      ],
      [
        "ag",
        "es"
      ],
      [
        "as",
        "e"
      ],
      [
        "ar",
        "ch"
      ],
      [
        "Ġon",
        "ly"
      ],
      [
        "st",
        "er"
      ],
      [
        "ver",
        "y"
      ],
      [
        "il",
        "y"
      ],
      [
        "ol",
        "d"
      ],
      [
        "Ġà¤ħ",
        "à¤§"
      ],
      [
        "Ġe",
        "ar"
      ],
      [
        "c",
        "he"
      ],
      [
        "à¤°",
        "à¤¦"
      ],
      [
        "Ġb",
        "etween"
      ],
      [
        "ot",
        "h"
      ],
      [
        "in",
        "ce"
      ],
      [
        "à¤°",
        "à¤®"
      ],
      [
        "ur",
        "al"
      ],
      [
        "Ġas",
        "s"
      ],
      [
        "u",
        "al"
      ],
      [
        "à¤µ",
        "à¤°"
      ],
      [
        "on",
        "d"
      ],
      [
        "Ġk",
        "n"
      ],
      [
        "r",
        "ans"
      ],
      [
        "\"",
        "."
      ],
      [
        "f",
        "t"
      ],
      [
        "o",
        "od"
      ],
      [
        "Ġp",
        "r"
      ],
      [
        "Ġà¤®",
        "à¤¨"
      ],
      [
        "à¥Ī",
        ","
      ],
      [
        "ĠS",
        "e"
      ],
      [
        "Ġv",
        "ar"
      ],
      [
        "00",
        "0"
      ],
      [
        "Ġp",
        "op"
      ],
      [
        "c",
        "re"
      ],
      [
        "or",
        "th"
      ],
      [
        "j",
        "ect"
      ],
      [
        "at",
        "h"
      ],
      [
        "Ġp",
        "e"
      ],
      [
        "ĠA",
        "f"
      ],
      [
        "Ġo",
        "ut"
      ],
      [
        "Ġ",
        "4"
      ],
      [
        "Ġh",
        "im"
      ],
      [
        "Ġthe",
        "m"
      ],
      [
        "iv",
        "ers"
      ],
      [
        "Ġin",
        "d"
      ],
      [
        "Ġp",
        "res"
      ],
      [
        "Ġ",
        "'"
      ],
      [
        "er",
        "ed"
      ],
      [
        "in",
        "d"
      ],
      [
        "a",
        "e"
      ],
      [
        "a",
        "re"
      ],
      [
        "Ġun",
        "der"
      ],
      [
        "ĠAp",
        "ollo"
      ],
      [
        "Ġst",
        "ate"
      ],
      [
        "Ġt",
        "ime"
      ],
      [
        "g",
        "an"
      ],
      [
        "Ġwhe",
        "n"
      ],
      [
        "Ġe",
        "m"
      ],
      [
        "ĠTh",
        "is"
      ],
      [
        "Ġs",
        "o"
      ],
      [
        "a",
        "w"
      ],
      [
        "ro",
        "p"
      ],
      [
        "à¤",
        "ĩ"
      ],
      [
        "Ġà¤®",
        "à¤¹"
      ],
      [
        "f",
        "orm"
      ],
      [
        "Ġo",
        "b"
      ],
      [
        "o",
        "in"
      ],
      [
        "st",
        "em"
      ],
      [
        "ad",
        "e"
      ],
      [
        "at",
        "ive"
      ],
      [
        "Ġm",
        "ay"
      ],
      [
        "Ġ",
        "up"
      ],
      [
        "Ġà¤µ",
        "à¤°"
      ],
      [
        "à¤",
        "¢"
      ],
      [
        "Ġab",
        "out"
      ],
      [
        "a",
        "il"
      ],
      [
        "ur",
        "n"
      ],
      [
        "à¥Ģ",
        ","
      ],
      [
        "oc",
        "k"
      ],
      [
        "c",
        "ial"
      ],
      [
        "Ġd",
        "if"
      ],
      [
        "o",
        "h"
      ],
      [
        "Ġa",
        "cc"
      ],
      [
        "Ġs",
        "et"
      ],
      [
        "ra",
        "b"
      ],
      [
        "Ġde",
        "f"
      ],
      [
        "Ġà¤ī",
        "à¤¤"
      ],
      [
        "Ġthe",
        "re"
      ],
      [
        "e",
        "ver"
      ],
      [
        "à¥",
        "¦"
      ],
      [
        "vel",
        "op"
      ],
      [
        "w",
        "n"
      ],
      [
        "Ġd",
        "uring"
      ],
      [
        "ĠAmeric",
        "an"
      ],
      [
        "Ġwor",
        "k"
      ],
      [
        "u",
        "res"
      ],
      [
        "and",
        "er"
      ],
      [
        "Ġch",
        "ar"
      ],
      [
        "over",
        "n"
      ],
      [
        "Ġpro",
        "v"
      ],
      [
        "op",
        "le"
      ],
      [
        "ub",
        "lic"
      ],
      [
        "iz",
        "ed"
      ],
      [
        "à¤¨",
        "à¤ķ"
      ],
      [
        "on",
        "s"
      ],
      [
        "ic",
        "t"
      ],
      [
        "Ġf",
        "ound"
      ],
      [
        "Ġwhe",
        "re"
      ],
      [
        "u",
        "ro"
      ],
      [
        "à¥",
        "ī"
      ],
      [
        "Ġth",
        "rough"
      ],
      [
        "Ġn",
        "ew"
      ],
      [
        "ian",
        "s"
      ],
      [
        "he",
        "n"
      ],
      [
        "Ġin",
        "v"
      ],
      [
        "Ġà¤",
        "«"
      ],
      [
        "Ġ19",
        "9"
      ],
      [
        "i",
        "ent"
      ],
      [
        "n",
        "e"
      ],
      [
        "Ġin",
        "ter"
      ],
      [
        "Ġ1",
        "7"
      ],
      [
        "Ġre",
        "m"
      ],
      [
        "aus",
        "e"
      ],
      [
        "at",
        "ing"
      ],
      [
        "v",
        "e"
      ],
      [
        "Ġ",
        "qu"
      ],
      [
        "Ġw",
        "ar"
      ],
      [
        "Ġf",
        "l"
      ],
      [
        "Ġp",
        "ol"
      ],
      [
        "Ġc",
        "ol"
      ],
      [
        "à¤¹",
        "à¤°"
      ],
      [
        "Ġus",
        "e"
      ],
      [
        "Ġcent",
        "ury"
      ],
      [
        "\"",
        ","
      ],
      [
        "i",
        "x"
      ],
      [
        "ical",
        "ly"
      ],
      [
        "2",
        "0"
      ],
      [
        "ĠA",
        "m"
      ],
      [
        "Ġsy",
        "stem"
      ],
      [
        "at",
        "ic"
      ],
      [
        "ra",
        "ph"
      ],
      [
        "Ġà¤°",
        "à¤¹"
      ],
      [
        "Ġs",
        "ur"
      ],
      [
        "oll",
        "ow"
      ],
      [
        "o",
        "y"
      ],
      [
        "u",
        "g"
      ],
      [
        "à¤",
        "ł"
      ],
      [
        "t",
        "on"
      ],
      [
        "v",
        "ed"
      ],
      [
        "Ġ",
        "est"
      ],
      [
        "Ġa",
        "ct"
      ],
      [
        "ch",
        "n"
      ],
      [
        "Ġyear",
        "s"
      ],
      [
        "Ġg",
        "ener"
      ],
      [
        "g",
        "est"
      ],
      [
        "st",
        "it"
      ],
      [
        "Ġ",
        "5"
      ],
      [
        "à¤ķ",
        "à¤°"
      ],
      [
        "d",
        "ition"
      ],
      [
        "is",
        "hed"
      ],
      [
        "il",
        "d"
      ],
      [
        "ak",
        "e"
      ],
      [
        "Ġ",
        "her"
      ],
      [
        "ow",
        "er"
      ],
      [
        "Ġt",
        "rans"
      ],
      [
        "Ġgro",
        "up"
      ],
      [
        "Ġw",
        "e"
      ],
      [
        "r",
        "al"
      ],
      [
        "Ġm",
        "an"
      ],
      [
        "Ġde",
        "velop"
      ],
      [
        "Ġwor",
        "ld"
      ],
      [
        "a",
        "j"
      ],
      [
        "b",
        "an"
      ],
      [
        "g",
        "er"
      ],
      [
        "ĠA",
        "lex"
      ],
      [
        "os",
        "s"
      ],
      [
        "u",
        "c"
      ],
      [
        "Ġd",
        "ist"
      ],
      [
        "l",
        "l"
      ],
      [
        "Ġof",
        "f"
      ],
      [
        "Ġà¤¬",
        "à¤¨"
      ],
      [
        "à¤",
        "Ľ"
      ],
      [
        "in",
        "al"
      ],
      [
        "Ġe",
        "ff"
      ],
      [
        "ay",
        "s"
      ],
      [
        "Ġà¤ī",
        "à¤ª"
      ],
      [
        "Ġwh",
        "ile"
      ],
      [
        "b",
        "a"
      ],
      [
        "t",
        "he"
      ],
      [
        "à¤µ",
        "à¤¨"
      ],
      [
        "Ġinclud",
        "ing"
      ],
      [
        "t",
        "le"
      ],
      [
        "Ġc",
        "o"
      ],
      [
        "Ġf",
        "am"
      ],
      [
        "ce",
        "pt"
      ],
      [
        "ow",
        "ever"
      ],
      [
        "Ġsu",
        "pp"
      ],
      [
        "Ġkn",
        "own"
      ],
      [
        "er",
        "t"
      ],
      [
        "id",
        "ent"
      ],
      [
        "Ġst",
        "ud"
      ],
      [
        "Ġre",
        "p"
      ],
      [
        "Ġc",
        "ar"
      ],
      [
        "Ġà¤ķ",
        "à¤°à¤¤"
      ],
      [
        "Ġthe",
        "se"
      ],
      [
        "f",
        "ore"
      ],
      [
        "ro",
        "und"
      ],
      [
        "Ġà¥",
        "§à¥"
      ],
      [
        "at",
        "ure"
      ],
      [
        "à¤¯",
        "à¤ķ"
      ],
      [
        "Ġd",
        "o"
      ],
      [
        "Ġim",
        "p"
      ],
      [
        "ĠA",
        "rab"
      ],
      [
        "ill",
        "ion"
      ],
      [
        "Ġc",
        "all"
      ],
      [
        "ĠR",
        "e"
      ],
      [
        "Ġ",
        "end"
      ],
      [
        "Ġà¤¤",
        "à¤¥"
      ],
      [
        "Ġ",
        "Y"
      ],
      [
        "uro",
        "pe"
      ],
      [
        "if",
        "e"
      ],
      [
        "c",
        "y"
      ],
      [
        "Ġg",
        "overn"
      ],
      [
        "Ġex",
        "t"
      ],
      [
        "ĠIn",
        "d"
      ],
      [
        "Ġw",
        "rit"
      ],
      [
        "Ġan",
        "im"
      ],
      [
        "ĠUn",
        "ited"
      ],
      [
        "ĠB",
        "rit"
      ],
      [
        "op",
        "h"
      ],
      [
        "ire",
        "ct"
      ],
      [
        "Ġw",
        "ell"
      ],
      [
        "id",
        "s"
      ],
      [
        "Ġs",
        "l"
      ],
      [
        "Ġt",
        "erm"
      ],
      [
        "h",
        "ip"
      ],
      [
        "u",
        "ally"
      ],
      [
        "Ġc",
        "re"
      ],
      [
        "Ġb",
        "o"
      ],
      [
        "ment",
        "s"
      ],
      [
        "h",
        "a"
      ],
      [
        "r",
        "am"
      ],
      [
        "Ġf",
        "ollow"
      ],
      [
        "ul",
        "ation"
      ],
      [
        "m",
        "y"
      ],
      [
        "à¤ľ",
        "à¤¨"
      ],
      [
        "Ġl",
        "ater"
      ],
      [
        "ĠSt",
        "ates"
      ],
      [
        "ed",
        "er"
      ],
      [
        "Ġà¤ĩà¤¸",
        "à¤ķ"
      ],
      [
        "ra",
        "ct"
      ],
      [
        "f",
        "l"
      ],
      [
        "Ġl",
        "oc"
      ],
      [
        "u",
        "ch"
      ],
      [
        "Ġpe",
        "ople"
      ],
      [
        "ĠG",
        "ree"
      ],
      [
        "is",
        "e"
      ],
      [
        "Ġb",
        "oth"
      ],
      [
        "ĠAn",
        "g"
      ],
      [
        "Ġ",
        "6"
      ],
      [
        "in",
        "s"
      ],
      [
        "y",
        "p"
      ],
      [
        "ber",
        "t"
      ],
      [
        "à¥į",
        "âĢ"
      ],
      [
        "à¤¸",
        "à¤ķ"
      ],
      [
        "Ġà¤ª",
        "à¤¹"
      ],
      [
        "ik",
        "e"
      ],
      [
        "Ġth",
        "ree"
      ],
      [
        "Ġn",
        "o"
      ],
      [
        "Ġdif",
        "fer"
      ],
      [
        "Ġbe",
        "ing"
      ],
      [
        "Ġ",
        "-"
      ],
      [
        "u",
        "es"
      ],
      [
        "Ġe",
        "le"
      ],
      [
        "Ġà¤¨",
        "à¤¹"
      ],
      [
        "Ġbec",
        "ame"
      ],
      [
        "Ġs",
        "m"
      ],
      [
        "Ġm",
        "ain"
      ],
      [
        "ud",
        "i"
      ],
      [
        "c",
        "ent"
      ],
      [
        "in",
        "es"
      ],
      [
        "Ġs",
        "im"
      ],
      [
        "à¤ķ",
        "à¤¤"
      ],
      [
        "c",
        "ess"
      ],
      [
        "ĠAn",
        "d"
      ],
      [
        "Ġ19",
        "6"
      ],
      [
        "Ġnum",
        "ber"
      ],
      [
        "âĢ",
        "Ķ"
      ],
      [
        "Ġà¤ľ",
        "à¤¨"
      ],
      [
        "ĠE",
        "urope"
      ],
      [
        "Ġh",
        "igh"
      ],
      [
        "g",
        "y"
      ],
      [
        "Ġ",
        "Z"
      ],
      [
        "à¤·",
        "à¤¦"
      ],
      [
        "ar",
        "s"
      ],
      [
        "ĠE",
        "n"
      ],
      [
        "Ġde",
        "c"
      ],
      [
        "il",
        "os"
      ],
      [
        "ĠA",
        "pp"
      ],
      [
        "A",
        "n"
      ],
      [
        "Ġex",
        "p"
      ],
      [
        "Ġf",
        "e"
      ],
      [
        "ction",
        "s"
      ],
      [
        "a",
        "x"
      ],
      [
        "à¤¯",
        "à¤¨"
      ],
      [
        "ĠD",
        "e"
      ],
      [
        "Ġcount",
        "ry"
      ],
      [
        "t",
        "il"
      ],
      [
        "st",
        "e"
      ],
      [
        "Ġchar",
        "act"
      ],
      [
        "à¥įâĢ",
        "į"
      ],
      [
        "im",
        "es"
      ],
      [
        "con",
        "d"
      ],
      [
        "iv",
        "ed"
      ],
      [
        "aj",
        "or"
      ],
      [
        "à¤°",
        "à¤¯"
      ],
      [
        "ol",
        "n"
      ],
      [
        "Ġà¤ı",
        "à¤µ"
      ],
      [
        "ĠS",
        "p"
      ],
      [
        "Ġà¤ķ",
        "à¤¹"
      ],
      [
        "em",
        "ent"
      ],
      [
        "Ġte",
        "chn"
      ],
      [
        "inc",
        "oln"
      ],
      [
        "Ġ",
        ","
      ],
      [
        "Ġspe",
        "c"
      ],
      [
        "à¤°",
        "à¤¸"
      ],
      [
        "or",
        "n"
      ],
      [
        "ar",
        "m"
      ],
      [
        "Ġà¤ķà¤°",
        "à¤¨"
      ],
      [
        "og",
        "raph"
      ],
      [
        "Ġlangu",
        "ages"
      ],
      [
        "Ġ",
        "7"
      ],
      [
        "ot",
        "her"
      ],
      [
        "ĠN",
        "ew"
      ],
      [
        "Ġan",
        "y"
      ],
      [
        "Ġp",
        "ers"
      ],
      [
        "Ġof",
        "ten"
      ],
      [
        "ib",
        "le"
      ],
      [
        "Ġh",
        "ist"
      ],
      [
        "l",
        "i"
      ],
      [
        "ĠAlex",
        "ander"
      ],
      [
        "Ġà¤",
        "ĺ"
      ],
      [
        "ĠJ",
        "oh"
      ],
      [
        "Ġor",
        "ig"
      ],
      [
        "Ġcons",
        "id"
      ],
      [
        "el",
        "f"
      ],
      [
        "um",
        "an"
      ],
      [
        "Ġb",
        "l"
      ],
      [
        "l",
        "ish"
      ],
      [
        "ĠP",
        "ro"
      ],
      [
        "Ġm",
        "ed"
      ],
      [
        "k",
        "y"
      ],
      [
        "it",
        "s"
      ],
      [
        "à¤ª",
        "à¤°"
      ],
      [
        "à¤¼",
        "à¤¾"
      ],
      [
        "i",
        "el"
      ],
      [
        "ang",
        "e"
      ],
      [
        "il",
        "it"
      ],
      [
        "Ġà¤ħ",
        "à¤°"
      ],
      [
        "at",
        "her"
      ],
      [
        "Ġm",
        "ade"
      ],
      [
        "Ġà¤ħ",
        "à¤ªà¤¨"
      ],
      [
        "Ġb",
        "el"
      ],
      [
        "Ġear",
        "ly"
      ],
      [
        "l",
        "ed"
      ],
      [
        "Ġà¤¤",
        "à¤ķ"
      ],
      [
        "Ġthe",
        "n"
      ],
      [
        "Ġpart",
        "ic"
      ],
      [
        "e",
        "x"
      ],
      [
        "Ġa",
        "ut"
      ],
      [
        "as",
        "k"
      ],
      [
        "Ġcont",
        "in"
      ],
      [
        "em",
        "ber"
      ],
      [
        "Ġ19",
        "7"
      ],
      [
        "Ġs",
        "ign"
      ],
      [
        "à¤²",
        "à¤¯"
      ],
      [
        "i",
        "ew"
      ],
      [
        "or",
        "k"
      ],
      [
        "Ġcall",
        "ed"
      ],
      [
        "s",
        "s"
      ],
      [
        "d",
        "s"
      ],
      [
        "Ġ",
        "8"
      ],
      [
        "à¤",
        "ħ"
      ],
      [
        "Ġà¤",
        "Ł"
      ],
      [
        "Ġc",
        "ult"
      ],
      [
        "ain",
        "s"
      ],
      [
        "Ġse",
        "ver"
      ],
      [
        "b",
        "ers"
      ],
      [
        "Ġre",
        "t"
      ],
      [
        "z",
        "er"
      ],
      [
        "om",
        "p"
      ],
      [
        "th",
        "ough"
      ],
      [
        "Ġd",
        "irect"
      ],
      [
        "il",
        "ity"
      ],
      [
        "amp",
        "le"
      ],
      [
        "en",
        "ces"
      ],
      [
        "is",
        "ion"
      ],
      [
        "ĠL",
        "incoln"
      ],
      [
        "Ġ19",
        "8"
      ],
      [
        "Ġdis",
        "c"
      ],
      [
        "i",
        "j"
      ],
      [
        "Ġc",
        "ity"
      ],
      [
        "Ġde",
        "p"
      ],
      [
        "us",
        "s"
      ],
      [
        "Ġ",
        "ent"
      ],
      [
        "ĠL",
        "e"
      ],
      [
        "Ġl",
        "ong"
      ],
      [
        "Ġs",
        "ch"
      ],
      [
        "Ġà¤¸",
        "à¤¬"
      ],
      [
        "ĠP",
        "h"
      ],
      [
        "con",
        "om"
      ],
      [
        "Ġo",
        "cc"
      ],
      [
        "ĠA",
        "g"
      ],
      [
        "Ġm",
        "ajor"
      ],
      [
        "Ġre",
        "v"
      ],
      [
        "ru",
        "ct"
      ],
      [
        "a",
        "h"
      ],
      [
        "as",
        "h"
      ],
      [
        "d",
        "e"
      ],
      [
        "Ġl",
        "and"
      ],
      [
        "ĠN",
        "orth"
      ],
      [
        "i",
        "qu"
      ],
      [
        "v",
        "ent"
      ],
      [
        "Ġin",
        "cre"
      ],
      [
        "an",
        "n"
      ],
      [
        ".",
        "\""
      ],
      [
        "Ġag",
        "ain"
      ],
      [
        "iv",
        "es"
      ],
      [
        "ĠArab",
        "ic"
      ],
      [
        "l",
        "ished"
      ],
      [
        "it",
        "al"
      ],
      [
        "a",
        "ir"
      ],
      [
        "Ġres",
        "ult"
      ],
      [
        "à¤®",
        "à¤¨"
      ],
      [
        "o",
        "ol"
      ],
      [
        "Ġf",
        "our"
      ],
      [
        "ĠJoh",
        "n"
      ],
      [
        "Ġà¤",
        "¡"
      ],
      [
        "he",
        "m"
      ],
      [
        "el",
        "s"
      ],
      [
        "pe",
        "ct"
      ],
      [
        "Ġle",
        "g"
      ],
      [
        "Ġcont",
        "ro"
      ],
      [
        "ivers",
        "ity"
      ],
      [
        "Ġgovern",
        "ment"
      ],
      [
        "Ġsm",
        "all"
      ],
      [
        "in",
        "ed"
      ],
      [
        "om",
        "an"
      ],
      [
        "ĠBrit",
        "ish"
      ],
      [
        "t",
        "ing"
      ],
      [
        "Ġs",
        "oc"
      ],
      [
        "Ġc",
        "ould"
      ],
      [
        "Ġ",
        "."
      ],
      [
        "Ġdes",
        "c"
      ],
      [
        "d",
        "am"
      ],
      [
        "Ġs",
        "erv"
      ],
      [
        "it",
        "er"
      ],
      [
        "Ġw",
        "ater"
      ],
      [
        "ut",
        "e"
      ],
      [
        "à¤¸",
        "à¤¨"
      ],
      [
        "Ġpop",
        "ulation"
      ],
      [
        "g",
        "or"
      ],
      [
        "Ġe",
        "lect"
      ],
      [
        "Ġal",
        "k"
      ],
      [
        "iv",
        "er"
      ],
      [
        "ant",
        "s"
      ],
      [
        "ĠUn",
        "ion"
      ],
      [
        "t",
        "o"
      ],
      [
        "à¤¸",
        "à¤°"
      ],
      [
        "Ġm",
        "in"
      ],
      [
        "id",
        "es"
      ],
      [
        "ain",
        "ed"
      ],
      [
        "Ġinclud",
        "e"
      ],
      [
        "ĠAt",
        "l"
      ],
      [
        "t",
        "y"
      ],
      [
        "ic",
        "k"
      ],
      [
        "à¤µ",
        "à¤¤"
      ],
      [
        "os",
        "ed"
      ],
      [
        "ol",
        "ution"
      ],
      [
        "Ġbe",
        "fore"
      ],
      [
        "Ġlangu",
        "age"
      ],
      [
        "i",
        "od"
      ],
      [
        "m",
        "s"
      ],
      [
        "Ġa",
        "ir"
      ],
      [
        "h",
        "ol"
      ],
      [
        "ĠF",
        "or"
      ],
      [
        "Ġcomm",
        "on"
      ],
      [
        "al",
        "e"
      ],
      [
        "Ġà¤¶",
        "à¤¬"
      ],
      [
        "iv",
        "ely"
      ],
      [
        "an",
        "e"
      ],
      [
        "om",
        "et"
      ],
      [
        "Ġeff",
        "ect"
      ],
      [
        "b",
        "le"
      ],
      [
        "Ġb",
        "u"
      ],
      [
        "ĠApp",
        "le"
      ],
      [
        "a",
        "red"
      ],
      [
        "à¤°",
        "à¤¹"
      ],
      [
        "A",
        "l"
      ],
      [
        "our",
        "t"
      ],
      [
        "iz",
        "ation"
      ],
      [
        "Ġ",
        "ed"
      ],
      [
        "Ġà¤",
        "Ľ"
      ],
      [
        "le",
        "y"
      ],
      [
        "Ġbec",
        "ause"
      ],
      [
        "i",
        "ation"
      ],
      [
        "Ġex",
        "ample"
      ],
      [
        "Ġsever",
        "al"
      ],
      [
        "ĠE",
        "m"
      ],
      [
        "Ġà¤¸",
        "à¤ķà¤¤"
      ],
      [
        "à¤®",
        "à¤ķ"
      ],
      [
        "ra",
        "ft"
      ],
      [
        "ak",
        "ing"
      ],
      [
        "f",
        "ul"
      ],
      [
        "à¥Ģ",
        "à¥¤"
      ],
      [
        "Ġe",
        "ach"
      ],
      [
        "Ġà¤¸à¤¬",
        "à¤¸"
      ],
      [
        "Ġre",
        "f"
      ],
      [
        "Ġse",
        "cond"
      ],
      [
        "1",
        "8"
      ],
      [
        "ord",
        "ing"
      ],
      [
        "Ġlar",
        "ge"
      ],
      [
        "ĠS",
        "ch"
      ],
      [
        "Ġle",
        "ad"
      ],
      [
        "c",
        "k"
      ],
      [
        "Ġex",
        "per"
      ],
      [
        "y",
        "d"
      ],
      [
        "id",
        "ed"
      ],
      [
        "Ġà¤§",
        "à¤°"
      ],
      [
        "p",
        "ar"
      ],
      [
        "Ġb",
        "ased"
      ],
      [
        "Ġm",
        "on"
      ],
      [
        "Ġe",
        "qu"
      ],
      [
        "e",
        "g"
      ],
      [
        "Ġst",
        "r"
      ],
      [
        "Ġst",
        "ates"
      ],
      [
        "à¤¶",
        "à¤¨"
      ],
      [
        "y",
        "l"
      ],
      [
        "ac",
        "ed"
      ],
      [
        "iv",
        "il"
      ],
      [
        "ĠO",
        "n"
      ],
      [
        "ĠAl",
        "ban"
      ],
      [
        "Ġm",
        "us"
      ],
      [
        "am",
        "a"
      ],
      [
        "r",
        "ies"
      ],
      [
        "s",
        "c"
      ],
      [
        "Ġ",
        "9"
      ],
      [
        "ri",
        "pt"
      ],
      [
        "en",
        "n"
      ],
      [
        "Ġam",
        "ong"
      ],
      [
        "ster",
        "dam"
      ],
      [
        "Ġim",
        "port"
      ],
      [
        "Ġph",
        "ilos"
      ],
      [
        "fl",
        "u"
      ],
      [
        "k",
        "e"
      ],
      [
        "à¤ĸ",
        "à¤¨"
      ],
      [
        "ent",
        "al"
      ],
      [
        "Ġdiffer",
        "ent"
      ],
      [
        "i",
        "o"
      ],
      [
        "ĠThe",
        "y"
      ],
      [
        "Ġsupp",
        "ort"
      ],
      [
        "ĠGree",
        "k"
      ],
      [
        "Ġa",
        "round"
      ],
      [
        "Ġe",
        "conom"
      ],
      [
        "Ġn",
        "am"
      ],
      [
        "Ġà¤ī",
        "à¤¦"
      ],
      [
        "à¤²",
        "à¤¨"
      ],
      [
        "Ġcl",
        "ass"
      ],
      [
        "ĠAng",
        "ol"
      ],
      [
        "t",
        "ic"
      ],
      [
        "tern",
        "ational"
      ],
      [
        "à¤",
        "ī"
      ],
      [
        "ĠI",
        "s"
      ],
      [
        "Ġà¤¬",
        "à¤¹"
      ],
      [
        "f",
        "eder"
      ],
      [
        "Ġo",
        "wn"
      ],
      [
        "ist",
        "ic"
      ],
      [
        "res",
        "ent"
      ],
      [
        "Ġà¤²",
        "à¤Ĺ"
      ],
      [
        "Ġs",
        "ince"
      ],
      [
        "zer",
        "ba"
      ],
      [
        "a",
        "id"
      ],
      [
        "an",
        "es"
      ],
      [
        "Ġn",
        "ame"
      ],
      [
        "ĠH",
        "owever"
      ],
      [
        "ij",
        "an"
      ],
      [
        "zerba",
        "ijan"
      ],
      [
        "Ġs",
        "ame"
      ],
      [
        "à¤¯",
        "à¤µ"
      ],
      [
        "or",
        "ld"
      ],
      [
        "Ġ1",
        "0"
      ],
      [
        "Ġb",
        "ack"
      ],
      [
        "à¤¸",
        "à¤®"
      ],
      [
        "est",
        "ern"
      ],
      [
        "g",
        "ed"
      ],
      [
        "it",
        "ch"
      ],
      [
        "à¤¯",
        "à¤®"
      ],
      [
        "an",
        "k"
      ],
      [
        "is",
        "ed"
      ],
      [
        "ĠS",
        "c"
      ],
      [
        "ad",
        "em"
      ],
      [
        "olog",
        "ical"
      ],
      [
        "al",
        "i"
      ],
      [
        "Ġ1",
        "6"
      ],
      [
        "Ġmo",
        "v"
      ],
      [
        "Ġsp",
        "ace"
      ],
      [
        "ep",
        "end"
      ],
      [
        "Ġmod",
        "ern"
      ],
      [
        "ĠAf",
        "ric"
      ],
      [
        "he",
        "s"
      ],
      [
        "Ġà¤Ĩ",
        "à¤¦"
      ],
      [
        "cc",
        "ess"
      ],
      [
        "ward",
        "s"
      ],
      [
        "Ġà¤Ĩ",
        "à¤§"
      ],
      [
        "Ġà¤",
        "ĳ"
      ],
      [
        "Ġw",
        "ill"
      ],
      [
        "et",
        "s"
      ],
      [
        "à¥Īà¤Ĥ",
        ","
      ],
      [
        "a",
        "pt"
      ],
      [
        "u",
        "ed"
      ],
      [
        "in",
        "n"
      ],
      [
        "ion",
        "al"
      ],
      [
        "ro",
        "du"
      ],
      [
        "Ġun",
        "til"
      ],
      [
        "Ġpol",
        "it"
      ],
      [
        "al",
        "t"
      ],
      [
        "Ġ18",
        "6"
      ],
      [
        "i",
        "red"
      ],
      [
        "à¤",
        "ĺ"
      ],
      [
        "Ġh",
        "uman"
      ],
      [
        "Ġest",
        "ab"
      ],
      [
        "Ġt",
        "er"
      ],
      [
        "Ġth",
        "ose"
      ],
      [
        "Ġpro",
        "p"
      ],
      [
        "Ġà¤ī",
        "à¤¨"
      ],
      [
        "Ġper",
        "iod"
      ],
      [
        "Ġl",
        "ife"
      ],
      [
        "à¤¼",
        "à¥Ģ"
      ],
      [
        "Ġ1",
        "5"
      ],
      [
        "il",
        "ar"
      ],
      [
        "if",
        "ied"
      ],
      [
        "Ġcharact",
        "er"
      ],
      [
        "en",
        "e"
      ],
      [
        "om",
        "m"
      ],
      [
        "Ġor",
        "gan"
      ],
      [
        "Ġd",
        "et"
      ],
      [
        "a",
        "z"
      ],
      [
        "a",
        "ut"
      ],
      [
        "à¤Ĺ",
        "à¤¢"
      ],
      [
        "ĠO",
        "r"
      ],
      [
        "ĠS",
        "outh"
      ],
      [
        "à¤Ł",
        "à¤°"
      ],
      [
        "Ġor",
        "der"
      ],
      [
        "ĠĠ",
        "ĠĠ"
      ],
      [
        "ĠEn",
        "g"
      ],
      [
        "Ġde",
        "ath"
      ],
      [
        "iet",
        "y"
      ],
      [
        "i",
        "ence"
      ],
      [
        "erm",
        "an"
      ],
      [
        "Ġpers",
        "on"
      ],
      [
        "Ġm",
        "at"
      ],
      [
        "Ġre",
        "qu"
      ],
      [
        "e",
        "c"
      ],
      [
        "Ġin",
        "flu"
      ],
      [
        "om",
        "in"
      ],
      [
        "Ġth",
        "ough"
      ],
      [
        "ist",
        "an"
      ],
      [
        "à¤ļ",
        "à¤¨"
      ],
      [
        "Ġab",
        "ort"
      ],
      [
        "Ġs",
        "er"
      ],
      [
        "iv",
        "al"
      ],
      [
        "ĠW",
        "orld"
      ],
      [
        "ĠWar",
        "hol"
      ],
      [
        "Ġc",
        "ap"
      ],
      [
        "Ġn",
        "on"
      ],
      [
        "ĠR",
        "ep"
      ],
      [
        "Ġ",
        "âĢĵ"
      ],
      [
        "ĠA",
        "zerbaijan"
      ],
      [
        "Ġm",
        "uch"
      ],
      [
        "gh",
        "an"
      ],
      [
        "Ġà¤ªà¤¹",
        "à¤²"
      ],
      [
        "Ġconsid",
        "ered"
      ],
      [
        "y",
        "n"
      ],
      [
        "Ġm",
        "ilit"
      ],
      [
        "Ġn",
        "ear"
      ],
      [
        "ĠCon",
        "feder"
      ],
      [
        "p",
        "en"
      ],
      [
        "ĠUn",
        "iversity"
      ],
      [
        "Ġc",
        "or"
      ],
      [
        "Ġp",
        "oss"
      ],
      [
        "à¤¦",
        "à¤°"
      ],
      [
        "Ġpres",
        "ent"
      ],
      [
        "a",
        "f"
      ],
      [
        "Ġb",
        "od"
      ],
      [
        "ĠB",
        "ell"
      ],
      [
        "ĠE",
        "ar"
      ],
      [
        "ask",
        "a"
      ],
      [
        "i",
        "er"
      ],
      [
        "Ġd",
        "ue"
      ],
      [
        "ster",
        "o"
      ],
      [
        "Ġagain",
        "st"
      ],
      [
        "à¤¬",
        "à¤°"
      ],
      [
        "Ġà¤ĩ",
        "à¤¨"
      ],
      [
        "ren",
        "t"
      ],
      [
        "c",
        "raft"
      ],
      [
        "r",
        "ing"
      ],
      [
        "ĠAm",
        "sterdam"
      ],
      [
        "Ġs",
        "he"
      ],
      [
        "à¤¯",
        "à¤¤"
      ],
      [
        "p",
        "or"
      ],
      [
        "Ġt",
        "em"
      ],
      [
        "Ġd",
        "id"
      ],
      [
        "iv",
        "ing"
      ],
      [
        "Ġb",
        "ro"
      ],
      [
        "Ġà¤ħ",
        "à¤²"
      ],
      [
        "Ġare",
        "a"
      ],
      [
        "ste",
        "in"
      ],
      [
        "ĠS",
        "h"
      ],
      [
        "ĠC",
        "l"
      ],
      [
        "ĠU",
        "S"
      ],
      [
        "Ġfam",
        "ily"
      ],
      [
        "Ġ",
        "if"
      ],
      [
        "at",
        "ely"
      ],
      [
        "Ġlar",
        "gest"
      ],
      [
        "in",
        "a"
      ],
      [
        "it",
        "ions"
      ],
      [
        "and",
        "ard"
      ],
      [
        "Ġen",
        "g"
      ],
      [
        "Ġt",
        "yp"
      ],
      [
        "Ġà¤¬",
        "à¤¡"
      ],
      [
        "Ġv",
        "al"
      ],
      [
        "w",
        "ay"
      ],
      [
        "Ġm",
        "em"
      ],
      [
        "st",
        "ron"
      ],
      [
        "o",
        "ok"
      ],
      [
        "Ġà¤ķ",
        "à¤Ī"
      ],
      [
        "Ġin",
        "du"
      ],
      [
        "ĠA",
        "ch"
      ],
      [
        "ro",
        "g"
      ],
      [
        "Ġà¤ĩ",
        "à¤¤"
      ],
      [
        "ric",
        "ult"
      ],
      [
        "à¥ĩ",
        "à¥¤"
      ],
      [
        "as",
        "es"
      ],
      [
        "Ġd",
        "iv"
      ],
      [
        "Ġcon",
        "f"
      ],
      [
        "th",
        "rop"
      ],
      [
        "ĠW",
        "h"
      ],
      [
        "r",
        "ist"
      ],
      [
        "x",
        "t"
      ],
      [
        "Ġp",
        "ublic"
      ],
      [
        "à¤²",
        "à¤¤"
      ],
      [
        "Ġv",
        "is"
      ],
      [
        "Ġà¤",
        "Ī"
      ],
      [
        "Ġpro",
        "g"
      ],
      [
        "av",
        "ing"
      ],
      [
        "Ġapp",
        "ro"
      ],
      [
        "on",
        "y"
      ],
      [
        "à¤¯",
        "à¤°"
      ],
      [
        "ĠA",
        "udi"
      ],
      [
        "Ġl",
        "ike"
      ],
      [
        "Ġme",
        "an"
      ],
      [
        "iss",
        "ion"
      ],
      [
        "Ġ",
        "very"
      ],
      [
        "ĠC",
        "ol"
      ],
      [
        "m",
        "in"
      ],
      [
        "v",
        "en"
      ],
      [
        "Ġsu",
        "ccess"
      ],
      [
        "land",
        "s"
      ],
      [
        "gor",
        "ith"
      ],
      [
        "s",
        "y"
      ],
      [
        "Ġre",
        "fer"
      ],
      [
        "Ġsim",
        "ilar"
      ],
      [
        "iel",
        "d"
      ],
      [
        "Ġdesc",
        "rib"
      ],
      [
        "Ġà¤",
        "Ĳ"
      ],
      [
        "Ġst",
        "at"
      ],
      [
        "m",
        "an"
      ],
      [
        "al",
        "ity"
      ],
      [
        "ĠT",
        "ur"
      ],
      [
        "à¤·",
        "à¤£"
      ],
      [
        "Ġwith",
        "in"
      ],
      [
        "at",
        "tle"
      ],
      [
        "Ġm",
        "ark"
      ],
      [
        "Ġa",
        "stero"
      ],
      [
        "Ġad",
        "v"
      ],
      [
        "Ġoff",
        "ic"
      ],
      [
        "Ġcontro",
        "l"
      ],
      [
        "a",
        "im"
      ],
      [
        "b",
        "r"
      ],
      [
        "m",
        "ed"
      ],
      [
        "Ġo",
        "per"
      ],
      [
        "Ġp",
        "ower"
      ],
      [
        "ro",
        "ss"
      ],
      [
        "Ġf",
        "ore"
      ],
      [
        "Ġà¤¸",
        "à¤Ń"
      ],
      [
        "5",
        "0"
      ],
      [
        "Ġ",
        "$"
      ],
      [
        "Ġà¥",
        "¨"
      ],
      [
        "al",
        "th"
      ],
      [
        "Ġpl",
        "ay"
      ],
      [
        "Ġcomm",
        "un"
      ],
      [
        "ĠAf",
        "ghan"
      ],
      [
        "oin",
        "t"
      ],
      [
        "Ġ1",
        "1"
      ],
      [
        "Ġf",
        "act"
      ],
      [
        "Ġal",
        "ong"
      ],
      [
        "Ġà¤¦",
        "à¤ķ"
      ],
      [
        "Ġex",
        "pl"
      ],
      [
        "ren",
        "ch"
      ],
      [
        "s",
        "erv"
      ],
      [
        "Ã",
        "©"
      ],
      [
        "¯",
        "à¥"
      ],
      [
        "ro",
        "w"
      ],
      [
        "ĠM",
        "ar"
      ],
      [
        "om",
        "en"
      ],
      [
        "iv",
        "en"
      ],
      [
        "u",
        "er"
      ],
      [
        "Ġc",
        "rit"
      ],
      [
        "ĠA",
        "d"
      ],
      [
        "Ġcon",
        "st"
      ],
      [
        "iz",
        "e"
      ],
      [
        "Ġprodu",
        "ct"
      ],
      [
        "Ġrep",
        "resent"
      ],
      [
        "in",
        "stein"
      ],
      [
        "ab",
        "ama"
      ],
      [
        "ial",
        "ly"
      ],
      [
        "Ġall",
        "ow"
      ],
      [
        "Ġan",
        "n"
      ],
      [
        "Ġte",
        "le"
      ],
      [
        "ĠAl",
        "aska"
      ],
      [
        "e",
        "e"
      ],
      [
        "p",
        "ire"
      ],
      [
        "Ġ",
        "es"
      ],
      [
        "Ġo",
        "il"
      ],
      [
        "Ġp",
        "ract"
      ],
      [
        "Ġmet",
        "h"
      ],
      [
        "Ġc",
        "ur"
      ],
      [
        "Ġh",
        "yd"
      ],
      [
        "os",
        "ition"
      ],
      [
        "ĠAs",
        "ia"
      ],
      [
        "ou",
        "ther"
      ],
      [
        "ent",
        "ly"
      ],
      [
        "ĠC",
        "ong"
      ],
      [
        "Ġà¤ħ",
        "à¤µ"
      ],
      [
        "Ġus",
        "ing"
      ],
      [
        "ĠM",
        "us"
      ],
      [
        "Ġvar",
        "ious"
      ],
      [
        "Ġaut",
        "h"
      ],
      [
        "outher",
        "n"
      ],
      [
        "ĠA",
        "c"
      ],
      [
        "c",
        "ock"
      ],
      [
        "t",
        "t"
      ],
      [
        "al",
        "es"
      ],
      [
        "Ġg",
        "reat"
      ],
      [
        "ĠB",
        "C"
      ],
      [
        "ar",
        "a"
      ],
      [
        "ĠAl",
        "bert"
      ],
      [
        "Ġs",
        "ol"
      ],
      [
        "Ġh",
        "ig"
      ],
      [
        "ant",
        "ic"
      ],
      [
        "Ġsh",
        "ow"
      ],
      [
        "t",
        "al"
      ],
      [
        "Ġ",
        "ide"
      ],
      [
        "Ġre",
        "ad"
      ],
      [
        "ĠC",
        "ar"
      ],
      [
        "ĠThe",
        "se"
      ],
      [
        "end",
        "ed"
      ],
      [
        ".",
        "."
      ],
      [
        "Ġà¤¶",
        "à¤¹à¤°"
      ],
      [
        "Ġorig",
        "in"
      ],
      [
        "Ġp",
        "o"
      ],
      [
        "Ġm",
        "ar"
      ],
      [
        "Ġn",
        "ational"
      ],
      [
        "ass",
        "i"
      ],
      [
        "Ġac",
        "id"
      ],
      [
        "Ġ",
        "="
      ],
      [
        "Ġm",
        "illion"
      ],
      [
        "Ġbe",
        "gan"
      ],
      [
        "ĠF",
        "rench"
      ],
      [
        "Ġà¤ī",
        "à¤¨à¤ķ"
      ],
      [
        "Ġ20",
        "2"
      ],
      [
        "ov",
        "e"
      ],
      [
        "Ġpartic",
        "ular"
      ],
      [
        "Ġin",
        "s"
      ],
      [
        "Ġapp",
        "e"
      ],
      [
        "Ġev",
        "en"
      ],
      [
        "Ġin",
        "c"
      ],
      [
        "st",
        "r"
      ],
      [
        "Ġre",
        "st"
      ],
      [
        "Ġind",
        "epend"
      ],
      [
        "itch",
        "cock"
      ],
      [
        "i",
        "us"
      ],
      [
        "ic",
        "es"
      ],
      [
        "Ġl",
        "aw"
      ],
      [
        "Ġpro",
        "cess"
      ],
      [
        "Ġf",
        "un"
      ],
      [
        "im",
        "al"
      ],
      [
        "ĠC",
        "an"
      ],
      [
        "ill",
        "es"
      ],
      [
        "Ġsch",
        "ool"
      ],
      [
        "o",
        "x"
      ],
      [
        "Ġa",
        "stron"
      ],
      [
        "Ġ1",
        "2"
      ],
      [
        "op",
        "en"
      ],
      [
        "pe",
        "cial"
      ],
      [
        "Ġsh",
        "ort"
      ],
      [
        "oph",
        "y"
      ],
      [
        "Ġfollow",
        "ing"
      ],
      [
        "re",
        "en"
      ],
      [
        "ro",
        "te"
      ],
      [
        "as",
        "on"
      ],
      [
        "Ġre",
        "port"
      ],
      [
        "Ġn",
        "ow"
      ],
      [
        "Ġà¤¬",
        "à¤²"
      ],
      [
        "Ġar",
        "g"
      ],
      [
        "Ġà¤¸",
        "à¤°"
      ],
      [
        "Ġgener",
        "al"
      ],
      [
        "Ġà¤ķ",
        "à¤²"
      ],
      [
        "ur",
        "ther"
      ],
      [
        "ĠC",
        "ent"
      ],
      [
        "à¤Ł",
        "à¤¨"
      ],
      [
        "ĠN",
        "ational"
      ],
      [
        "re",
        "ed"
      ],
      [
        "ot",
        "le"
      ],
      [
        "ĠJ",
        "ap"
      ],
      [
        "as",
        "tern"
      ],
      [
        "Ġà¤¦",
        "à¤°"
      ],
      [
        "ĠAr",
        "ist"
      ],
      [
        "ĠAngol",
        "a"
      ],
      [
        "c",
        "ient"
      ],
      [
        "à¤",
        "ĥ"
      ],
      [
        "re",
        "ad"
      ],
      [
        "Ġprodu",
        "ction"
      ],
      [
        "Ġra",
        "d"
      ],
      [
        "Ġo",
        "pp"
      ],
      [
        "Ġg",
        "ra"
      ],
      [
        "Ġà¤¸à¤®",
        "à¤¯"
      ],
      [
        "Ġbel",
        "ie"
      ],
      [
        "o",
        "on"
      ],
      [
        "Ġl",
        "ess"
      ],
      [
        "Ġrel",
        "ig"
      ],
      [
        "Ġcount",
        "ries"
      ],
      [
        "Ġocc",
        "ur"
      ],
      [
        "Ġp",
        "at"
      ],
      [
        "Ġà¤ª",
        "à¤¶"
      ],
      [
        "Ġn",
        "orth"
      ],
      [
        "Ġimport",
        "ant"
      ],
      [
        "Ġà¤®",
        "à¤§"
      ],
      [
        "et",
        "ic"
      ],
      [
        "à¤ª",
        "à¤¤"
      ],
      [
        "og",
        "n"
      ],
      [
        "Ġcomp",
        "le"
      ],
      [
        "I",
        "I"
      ],
      [
        "n",
        "ess"
      ],
      [
        "r",
        "is"
      ],
      [
        "at",
        "a"
      ],
      [
        "Ġf",
        "ew"
      ],
      [
        "Ġe",
        "very"
      ],
      [
        "Ġr",
        "ight"
      ],
      [
        "Ġpr",
        "im"
      ],
      [
        "Ġsign",
        "ific"
      ],
      [
        "Ġter",
        "rit"
      ],
      [
        "v",
        "es"
      ],
      [
        "em",
        "pt"
      ],
      [
        "ĠAl",
        "ger"
      ],
      [
        "ĠAl",
        "abama"
      ],
      [
        "Ġspec",
        "ies"
      ],
      [
        "ĠRep",
        "ublic"
      ],
      [
        "i",
        "pp"
      ],
      [
        "Ġà¤ķ",
        "à¤®"
      ],
      [
        "Ġdes",
        "ign"
      ],
      [
        "ĠCong",
        "ress"
      ],
      [
        "Ġp",
        "ub"
      ],
      [
        "her",
        "n"
      ],
      [
        "Ġprog",
        "ram"
      ],
      [
        "Ġd",
        "em"
      ],
      [
        "ul",
        "l"
      ],
      [
        "Ġal",
        "gorith"
      ],
      [
        "Ġper",
        "form"
      ],
      [
        "Ġpolit",
        "ical"
      ],
      [
        "Ġmilit",
        "ary"
      ],
      [
        "open",
        "ha"
      ],
      [
        "e",
        "le"
      ],
      [
        "Ġg",
        "l"
      ],
      [
        "ĠR",
        "uss"
      ],
      [
        "che",
        "s"
      ],
      [
        "adem",
        "y"
      ],
      [
        "ĠEar",
        "th"
      ],
      [
        "it",
        "ic"
      ],
      [
        "Ġà¤ľ",
        "à¤¬"
      ],
      [
        "ud",
        "e"
      ],
      [
        ".",
        ","
      ],
      [
        "Ġw",
        "ay"
      ],
      [
        "or",
        "ies"
      ],
      [
        "à¤ķ",
        "à¤²"
      ],
      [
        "Ġl",
        "ed"
      ],
      [
        "Ġad",
        "d"
      ],
      [
        "ĠSe",
        "a"
      ],
      [
        "Ġob",
        "ject"
      ],
      [
        "Ġp",
        "ar"
      ],
      [
        "Ġre",
        "ce"
      ],
      [
        "Ġl",
        "a"
      ],
      [
        "Ġst",
        "ill"
      ],
      [
        "Ġhe",
        "ad"
      ],
      [
        "openha",
        "uer"
      ],
      [
        "at",
        "ural"
      ],
      [
        "im",
        "ate"
      ],
      [
        "ĠB",
        "y"
      ],
      [
        "ag",
        "n"
      ],
      [
        "Ġob",
        "serv"
      ],
      [
        "Ġbod",
        "y"
      ],
      [
        "i",
        "am"
      ],
      [
        "Ġs",
        "omet"
      ],
      [
        "Ġl",
        "im"
      ],
      [
        "ot",
        "s"
      ],
      [
        "ĠP",
        "l"
      ],
      [
        "Ġapp",
        "ear"
      ],
      [
        "c",
        "ing"
      ],
      [
        "Ġà¤",
        "ĵ"
      ],
      [
        "Ġan",
        "arch"
      ],
      [
        "Ġ1",
        "3"
      ],
      [
        "ĠThe",
        "re"
      ],
      [
        "ort",
        "hern"
      ],
      [
        "ri",
        "ed"
      ],
      [
        "f",
        "ace"
      ],
      [
        "Ġa",
        "v"
      ],
      [
        "Ġo",
        "ld"
      ],
      [
        "ing",
        "u"
      ],
      [
        "ĠH",
        "is"
      ],
      [
        "and",
        "s"
      ],
      [
        "ab",
        "ly"
      ],
      [
        "Ġcomp",
        "any"
      ],
      [
        "Ġfilm",
        "s"
      ],
      [
        "Ġà¤ĳ",
        "à¤¸"
      ],
      [
        "Ġser",
        "ies"
      ],
      [
        "b",
        "ed"
      ],
      [
        "m",
        "e"
      ],
      [
        "Ġs",
        "aid"
      ],
      [
        "à¤¤",
        "à¤¨"
      ],
      [
        "ut",
        "ed"
      ],
      [
        "stit",
        "ution"
      ],
      [
        "Ġalk",
        "ali"
      ],
      [
        "at",
        "s"
      ],
      [
        "Ġw",
        "rote"
      ],
      [
        "her",
        "s"
      ],
      [
        "um",
        "ent"
      ],
      [
        "Ġ19",
        "3"
      ],
      [
        "Ġhe",
        "l"
      ],
      [
        "over",
        "ed"
      ],
      [
        "tern",
        "al"
      ],
      [
        "Ġdevelop",
        "ed"
      ],
      [
        "ograph",
        "y"
      ],
      [
        "Ġret",
        "urn"
      ],
      [
        "in",
        "t"
      ],
      [
        "à¥ĩ",
        ","
      ],
      [
        "Ġà¤¸",
        "à¤¹"
      ],
      [
        "un",
        "g"
      ],
      [
        "ain",
        "ing"
      ],
      [
        "Ġtra",
        "dition"
      ],
      [
        "Ġstud",
        "y"
      ],
      [
        "Ġindu",
        "st"
      ],
      [
        "ĠAc",
        "ademy"
      ],
      [
        "ĠA",
        "ust"
      ],
      [
        "ou",
        "se"
      ],
      [
        "Ġg",
        "o"
      ],
      [
        "Ġà¤ħ",
        "à¤¤"
      ],
      [
        "Ġwh",
        "at"
      ],
      [
        "Ġwor",
        "ks"
      ],
      [
        "Ġabort",
        "ion"
      ],
      [
        "iv",
        "ity"
      ],
      [
        "ĠP",
        "ar"
      ],
      [
        "Ġk",
        "e"
      ],
      [
        "sy",
        "ch"
      ],
      [
        "e",
        "b"
      ],
      [
        "Ġc",
        "ourt"
      ],
      [
        "à¤¨",
        "à¤µ"
      ],
      [
        "Ġp",
        "ur"
      ],
      [
        "Ġd",
        "er"
      ],
      [
        "ĠH",
        "itchcock"
      ],
      [
        "Ġ19",
        "4"
      ],
      [
        "Ġcomp",
        "ut"
      ],
      [
        "Ġph",
        "ys"
      ],
      [
        "r",
        "il"
      ],
      [
        "Ġs",
        "ing"
      ],
      [
        "en",
        "g"
      ],
      [
        "à¤¤",
        "à¤®"
      ],
      [
        "Ġl",
        "ast"
      ],
      [
        "ure",
        "d"
      ],
      [
        "Ġhist",
        "ory"
      ],
      [
        "2",
        "00"
      ],
      [
        "b",
        "it"
      ],
      [
        "m",
        "b"
      ],
      [
        "it",
        "her"
      ],
      [
        "Ġch",
        "ild"
      ],
      [
        "Ġreg",
        "ion"
      ],
      [
        "ĠEm",
        "pire"
      ],
      [
        "p",
        "le"
      ],
      [
        "Ġan",
        "throp"
      ],
      [
        "Ġà¤¨",
        "à¤¦"
      ],
      [
        "ĠG",
        "e"
      ],
      [
        "Ġres",
        "p"
      ],
      [
        "ĠS",
        "ome"
      ],
      [
        "Ġmeth",
        "od"
      ],
      [
        "Ġpop",
        "ular"
      ],
      [
        "Ġf",
        "in"
      ],
      [
        "cc",
        "ording"
      ],
      [
        "a",
        "pp"
      ],
      [
        "d",
        "ay"
      ],
      [
        "Ġthe",
        "ory"
      ],
      [
        "ĠA",
        "b"
      ],
      [
        "à¤µ",
        "à¤²"
      ],
      [
        "et",
        "her"
      ],
      [
        "ĠAch",
        "illes"
      ],
      [
        "1",
        "0"
      ],
      [
        "i",
        "ated"
      ],
      [
        "Ġs",
        "outh"
      ],
      [
        "Ġp",
        "ort"
      ],
      [
        "Ġ1",
        "4"
      ],
      [
        "ac",
        "y"
      ],
      [
        "Ġsp",
        "ok"
      ],
      [
        "ĠAmeric",
        "a"
      ],
      [
        "Ġgroup",
        "s"
      ],
      [
        "Ġa",
        "ff"
      ],
      [
        "à¤°",
        "à¤Ń"
      ],
      [
        "it",
        "es"
      ],
      [
        "Ġal",
        "though"
      ],
      [
        "Ġpro",
        "ble"
      ],
      [
        "Ġsoc",
        "ial"
      ],
      [
        "e",
        "an"
      ],
      [
        "à¥",
        "¨"
      ],
      [
        "ir",
        "d"
      ],
      [
        "Ġpro",
        "t"
      ],
      [
        "ĠR",
        "oman"
      ],
      [
        "Ġhist",
        "or"
      ],
      [
        "o",
        "ice"
      ],
      [
        "Ġh",
        "al"
      ],
      [
        "Ġare",
        "as"
      ],
      [
        "Ġinclud",
        "ed"
      ],
      [
        "Ġp",
        "ot"
      ],
      [
        "ĠG",
        "erman"
      ],
      [
        "Ġl",
        "in"
      ],
      [
        "Ġst",
        "art"
      ],
      [
        "Ġag",
        "ricult"
      ],
      [
        "Ġass",
        "oc"
      ],
      [
        "ĠY",
        "ork"
      ],
      [
        "ĠAg",
        "assi"
      ],
      [
        "ĠEng",
        "lish"
      ],
      [
        "on",
        "es"
      ],
      [
        "at",
        "ures"
      ],
      [
        "Ġm",
        "ult"
      ],
      [
        "ir",
        "on"
      ],
      [
        "Ġal",
        "che"
      ],
      [
        "op",
        "s"
      ],
      [
        "ĠE",
        "instein"
      ],
      [
        "Ġcl",
        "aim"
      ],
      [
        "l",
        "or"
      ],
      [
        "Ġb",
        "it"
      ],
      [
        "Ġà¤¸",
        "à¤¦"
      ],
      [
        "ent",
        "ial"
      ],
      [
        "ad",
        "s"
      ],
      [
        "um",
        "en"
      ],
      [
        "Ġv",
        "iew"
      ],
      [
        "inc",
        "ip"
      ],
      [
        "ĠArist",
        "otle"
      ],
      [
        "en",
        "cy"
      ],
      [
        "Ġf",
        "arm"
      ],
      [
        "id",
        "d"
      ],
      [
        "Ġà¤µ",
        "à¤¹"
      ],
      [
        "Ġà¤Ĩ",
        "à¤°"
      ],
      [
        "Ġrel",
        "ations"
      ],
      [
        "Ġstr",
        "ong"
      ],
      [
        "ĠAlban",
        "ia"
      ],
      [
        "r",
        "ation"
      ],
      [
        "Ġ",
        "er"
      ],
      [
        "Ġc",
        "aus"
      ],
      [
        "ing",
        "ton"
      ],
      [
        "Ġsignific",
        "ant"
      ],
      [
        "c",
        "hed"
      ],
      [
        "i",
        "atic"
      ],
      [
        "l",
        "ess"
      ],
      [
        "Ġb",
        "as"
      ],
      [
        "ur",
        "g"
      ],
      [
        "à¤Ĺ",
        "à¤¤"
      ],
      [
        "Ġat",
        "om"
      ],
      [
        "Ġgro",
        "w"
      ],
      [
        "à¤°",
        "à¤µ"
      ],
      [
        "ĠAn",
        "at"
      ],
      [
        "Ġen",
        "c"
      ],
      [
        "Ġbec",
        "ome"
      ],
      [
        "ĠEurope",
        "an"
      ],
      [
        "Ġauth",
        "or"
      ],
      [
        "Ġhel",
        "p"
      ],
      [
        "Ġn",
        "ov"
      ],
      [
        "Ġpro",
        "f"
      ],
      [
        "Ġint",
        "rodu"
      ],
      [
        "b",
        "on"
      ],
      [
        "s",
        "ky"
      ],
      [
        "à¤",
        "Ĭ"
      ],
      [
        "Ġan",
        "al"
      ],
      [
        "Ġm",
        "ake"
      ],
      [
        "am",
        "es"
      ],
      [
        "Ġsu",
        "g"
      ],
      [
        "Ġus",
        "ually"
      ],
      [
        "ak",
        "es"
      ],
      [
        "ĠAnd",
        "or"
      ],
      [
        "e",
        "um"
      ],
      [
        "Ġs",
        "our"
      ],
      [
        "Ġc",
        "amp"
      ],
      [
        "ict",
        "ion"
      ],
      [
        "Ġnam",
        "ed"
      ],
      [
        "pecial",
        "ly"
      ],
      [
        "m",
        "ost"
      ],
      [
        "Ġst",
        "ruct"
      ],
      [
        "Ġst",
        "andard"
      ],
      [
        "Ġbo",
        "ok"
      ],
      [
        "ĠAfghan",
        "istan"
      ],
      [
        "o",
        "ot"
      ],
      [
        "in",
        "ation"
      ],
      [
        "Ġf",
        "ive"
      ],
      [
        "à¤ķ",
        "à¤°à¤£"
      ],
      [
        "Ġcom",
        "b"
      ],
      [
        "Ġestab",
        "lished"
      ],
      [
        "1",
        "7"
      ],
      [
        "i",
        "or"
      ],
      [
        "l",
        "ine"
      ],
      [
        "n",
        "er"
      ],
      [
        "Ġto",
        "ok"
      ],
      [
        "Ġdevelop",
        "ment"
      ],
      [
        "ert",
        "ain"
      ],
      [
        "t",
        "a"
      ],
      [
        "Ġd",
        "r"
      ],
      [
        "om",
        "y"
      ],
      [
        "Ġl",
        "ow"
      ],
      [
        "Ġpro",
        "per"
      ],
      [
        "Ġle",
        "ft"
      ],
      [
        "ĠAlbert",
        "a"
      ],
      [
        "v",
        "ers"
      ],
      [
        "Ġ",
        "Q"
      ],
      [
        "à¤",
        "Ŀ"
      ],
      [
        "Ġt",
        "imes"
      ],
      [
        "ĠA",
        "fter"
      ],
      [
        "à¤ľ",
        "à¤°"
      ],
      [
        "ĠB",
        "er"
      ],
      [
        "Ġch",
        "ang"
      ],
      [
        "Ġp",
        "ass"
      ],
      [
        "Ġm",
        "en"
      ],
      [
        "r",
        "ant"
      ],
      [
        "u",
        "le"
      ],
      [
        "Ġl",
        "ate"
      ],
      [
        "Ġj",
        "ust"
      ],
      [
        "c",
        "ul"
      ],
      [
        "ent",
        "ion"
      ],
      [
        "Ġre",
        "du"
      ],
      [
        "od",
        "e"
      ],
      [
        "Ġde",
        "v"
      ],
      [
        "Ġmet",
        "als"
      ],
      [
        "it",
        "ive"
      ],
      [
        "Ġp",
        "red"
      ],
      [
        "st",
        "on"
      ],
      [
        "Ġl",
        "iter"
      ],
      [
        "et",
        "h"
      ],
      [
        "un",
        "e"
      ],
      [
        "Ġ19",
        "2"
      ],
      [
        "ri",
        "al"
      ],
      [
        "Ġt",
        "ro"
      ],
      [
        "Ġb",
        "i"
      ],
      [
        "Ġm",
        "ater"
      ],
      [
        "à¤Ĺ",
        "à¤²"
      ],
      [
        "Ġg",
        "iven"
      ],
      [
        "Ġpl",
        "ace"
      ],
      [
        "Ġother",
        "s"
      ],
      [
        "ĠAfric",
        "a"
      ],
      [
        "Ġin",
        "st"
      ],
      [
        "Ġh",
        "owever"
      ],
      [
        "Ġh",
        "aving"
      ],
      [
        "Ġà¤¹",
        "à¤°"
      ],
      [
        "iv",
        "id"
      ],
      [
        "ut",
        "es"
      ],
      [
        "ĠW",
        "ill"
      ],
      [
        "Ġad",
        "dition"
      ],
      [
        "Ġpre",
        "v"
      ],
      [
        "Ġatt",
        "empt"
      ],
      [
        "gy",
        "pt"
      ],
      [
        "S",
        "A"
      ],
      [
        "ĠB",
        "e"
      ],
      [
        "ĠJ",
        "u"
      ],
      [
        "ov",
        "iet"
      ],
      [
        "ĠAtl",
        "antic"
      ],
      [
        "ĠSch",
        "openhauer"
      ],
      [
        "c",
        "il"
      ],
      [
        "h",
        "am"
      ],
      [
        "Ġ",
        "i"
      ],
      [
        "in",
        "ing"
      ],
      [
        "Ġe",
        "th"
      ],
      [
        "à¥ĩà¤Ĥ",
        ","
      ],
      [
        "Ġis",
        "s"
      ],
      [
        "Ġwith",
        "out"
      ],
      [
        "ĠIn",
        "ternational"
      ],
      [
        "ĠCh",
        "rist"
      ],
      [
        "Ġne",
        "ed"
      ],
      [
        "Ġrec",
        "ord"
      ],
      [
        "Ġanim",
        "ation"
      ],
      [
        "ĠAnat",
        "ol"
      ],
      [
        "à¥",
        "«"
      ],
      [
        "à¥",
        "§à¥"
      ],
      [
        "en",
        "se"
      ],
      [
        "Ġà¤¸",
        "à¤°à¤ķ"
      ],
      [
        "Ġh",
        "ome"
      ],
      [
        "ĠH",
        "er"
      ],
      [
        "se",
        "qu"
      ],
      [
        "stit",
        "ute"
      ],
      [
        "Ġmus",
        "ic"
      ],
      [
        "ĠCan",
        "ad"
      ],
      [
        "s",
        "ide"
      ],
      [
        "an",
        "ces"
      ],
      [
        "Ġs",
        "old"
      ],
      [
        "ĠP",
        "ers"
      ],
      [
        "Ġo",
        "pen"
      ],
      [
        "Ġg",
        "od"
      ],
      [
        "Ġloc",
        "al"
      ],
      [
        "Ġmem",
        "bers"
      ],
      [
        "Ġc",
        "ase"
      ],
      [
        "Ġan",
        "other"
      ],
      [
        "il",
        "t"
      ],
      [
        "Ġs",
        "k"
      ],
      [
        "ĠB",
        "l"
      ],
      [
        "Ġv",
        "ers"
      ],
      [
        "Ġse",
        "par"
      ],
      [
        "ific",
        "ation"
      ],
      [
        "Ġwrit",
        "ten"
      ],
      [
        "Ġ",
        "ver"
      ],
      [
        "ro",
        "as"
      ],
      [
        "le",
        "ar"
      ],
      [
        "Ġà¤ħ",
        "à¤Ń"
      ],
      [
        "ph",
        "ab"
      ],
      [
        "Ġprodu",
        "ced"
      ],
      [
        "Ġsug",
        "gest"
      ],
      [
        "l",
        "am"
      ],
      [
        "Ġt",
        "it"
      ],
      [
        "er",
        "gy"
      ],
      [
        "at",
        "in"
      ],
      [
        "à¤¿",
        ","
      ],
      [
        "à¤¤",
        "à¤ķ"
      ],
      [
        "à¤¯",
        "à¤¯à¤¨"
      ],
      [
        "id",
        "ence"
      ],
      [
        "Ġà¤Ĺ",
        "à¤ı"
      ],
      [
        "Ġà¤ī",
        "à¤¸"
      ],
      [
        "Ġinv",
        "ol"
      ],
      [
        "Ġsur",
        "face"
      ],
      [
        "Ġco",
        "ast"
      ],
      [
        "Ġsomet",
        "imes"
      ],
      [
        "Ġt",
        "urn"
      ],
      [
        "Ġm",
        "ass"
      ],
      [
        "il",
        "le"
      ],
      [
        "à¤¥",
        "à¤²"
      ],
      [
        "Ġle",
        "vel"
      ],
      [
        "Ġform",
        "s"
      ],
      [
        "Ġtechn",
        "iqu"
      ],
      [
        "roas",
        "iatic"
      ],
      [
        "en",
        "ced"
      ],
      [
        "Ġd",
        "own"
      ],
      [
        "à¤²",
        "à¤µ"
      ],
      [
        "ol",
        "ic"
      ],
      [
        "Ġn",
        "atural"
      ],
      [
        "Ġsu",
        "ff"
      ],
      [
        "ĠW",
        "hen"
      ],
      [
        "Ġrel",
        "at"
      ],
      [
        "Ġsystem",
        "s"
      ],
      [
        "s",
        "h"
      ],
      [
        "Ġt",
        "ax"
      ],
      [
        "Ġb",
        "r"
      ],
      [
        "Ġà¤ħ",
        "à¤ķ"
      ],
      [
        "Ġà¤Ĩ",
        "à¤¤"
      ],
      [
        "Ġwor",
        "d"
      ],
      [
        "z",
        "e"
      ],
      [
        "at",
        "or"
      ],
      [
        "Ġan",
        "t"
      ],
      [
        "ĠM",
        "ed"
      ],
      [
        "Ġ19",
        "5"
      ],
      [
        "Ġex",
        "ist"
      ],
      [
        "Ġes",
        "pecially"
      ],
      [
        "r",
        "ance"
      ],
      [
        "Ġf",
        "inal"
      ],
      [
        "Ġd",
        "ay"
      ],
      [
        "à¤µ",
        "à¤µ"
      ],
      [
        "ĠM",
        "on"
      ],
      [
        "ab",
        "ility"
      ],
      [
        "ĠR",
        "o"
      ],
      [
        "à¤Ń",
        "à¤Ĺ"
      ],
      [
        "ĠAp",
        "ril"
      ],
      [
        "Ġspok",
        "en"
      ],
      [
        "m",
        "on"
      ],
      [
        "Ġc",
        "are"
      ],
      [
        "Ġde",
        "cl"
      ],
      [
        "Ġhe",
        "ld"
      ],
      [
        "ak",
        "en"
      ],
      [
        "Ġexper",
        "im"
      ],
      [
        "1",
        "2"
      ],
      [
        "à¤°",
        "à¤¶"
      ],
      [
        "al",
        "k"
      ],
      [
        "Ġm",
        "ot"
      ],
      [
        "Ġpro",
        "m"
      ],
      [
        "if",
        "t"
      ],
      [
        "Ġpub",
        "lished"
      ],
      [
        "re",
        "t"
      ],
      [
        "Ġs",
        "al"
      ],
      [
        "Ġh",
        "and"
      ],
      [
        "Ġe",
        "l"
      ],
      [
        "Ġbe",
        "g"
      ],
      [
        "ĠE",
        "gypt"
      ],
      [
        "à¤¼",
        "à¥ĩ"
      ],
      [
        "Ġme",
        "ans"
      ],
      [
        "O",
        "n"
      ],
      [
        "Ġin",
        "it"
      ],
      [
        "em",
        "ents"
      ],
      [
        "o",
        "f"
      ],
      [
        "Ġb",
        "or"
      ],
      [
        "Ġfor",
        "mer"
      ],
      [
        "ĠP",
        "r"
      ],
      [
        "Ġwor",
        "ds"
      ],
      [
        "pl",
        "oy"
      ],
      [
        "Ġpr",
        "incip"
      ],
      [
        "Ġterm",
        "s"
      ],
      [
        "a",
        "pe"
      ],
      [
        "re",
        "w"
      ],
      [
        "Ġb",
        "ran"
      ],
      [
        "Ġl",
        "ine"
      ],
      [
        "Ġà¤Ĩ",
        "à¤¯"
      ],
      [
        "Ġcre",
        "w"
      ],
      [
        "a",
        "ign"
      ],
      [
        "m",
        "ing"
      ],
      [
        "y",
        "le"
      ],
      [
        "Ġt",
        "reat"
      ],
      [
        "Ġd",
        "ata"
      ],
      [
        "Ġe",
        "ither"
      ],
      [
        "ĠS",
        "oviet"
      ],
      [
        "if",
        "y"
      ],
      [
        "Ġcent",
        "ral"
      ],
      [
        "Ġev",
        "ent"
      ],
      [
        "Ġear",
        "li"
      ],
      [
        "Ġind",
        "ivid"
      ],
      [
        "Ġcol",
        "on"
      ],
      [
        "ĠJu",
        "ly"
      ],
      [
        "u",
        "x"
      ],
      [
        "Ġc",
        "ivil"
      ],
      [
        "Ġp",
        "oint"
      ],
      [
        "Ġre",
        "le"
      ],
      [
        "Ġbe",
        "h"
      ],
      [
        "Ġr",
        "ul"
      ],
      [
        "ĠAtl",
        "as"
      ],
      [
        "a",
        "very"
      ],
      [
        "f",
        "or"
      ],
      [
        "o",
        "ks"
      ],
      [
        "Ġs",
        "on"
      ],
      [
        "Ġm",
        "y"
      ],
      [
        "à¤®",
        "à¤¤"
      ],
      [
        "ĠC",
        "omm"
      ],
      [
        "th",
        "s"
      ],
      [
        "à¤¼",
        "à¤¿"
      ],
      [
        "ener",
        "al"
      ],
      [
        "Ġà¤®à¤¹",
        "à¤¤"
      ],
      [
        "Ġ",
        "0"
      ],
      [
        "at",
        "t"
      ],
      [
        "Ġto",
        "tal"
      ],
      [
        "Ġre",
        "se"
      ],
      [
        "Ġl",
        "ower"
      ],
      [
        "ut",
        "ions"
      ],
      [
        "end",
        "s"
      ],
      [
        "Ġch",
        "ange"
      ],
      [
        "Ġelect",
        "ron"
      ],
      [
        "Ġmater",
        "ial"
      ],
      [
        "d",
        "een"
      ],
      [
        "f",
        "ic"
      ],
      [
        "as",
        "ing"
      ],
      [
        "im",
        "ately"
      ],
      [
        "ĠC",
        "ivil"
      ],
      [
        "Ġfor",
        "ces"
      ],
      [
        "ĠP",
        "at"
      ],
      [
        "ĠP",
        "ort"
      ],
      [
        "ber",
        "deen"
      ],
      [
        "ect",
        "s"
      ],
      [
        "Ġnum",
        "bers"
      ],
      [
        "form",
        "ation"
      ],
      [
        "Ġed",
        "uc"
      ],
      [
        "Ġdescrib",
        "ed"
      ],
      [
        "ra",
        "p"
      ],
      [
        "ot",
        "e"
      ],
      [
        "Ġcon",
        "c"
      ],
      [
        "ov",
        "sky"
      ],
      [
        "ĠAr",
        "t"
      ],
      [
        "Ġbu",
        "ild"
      ],
      [
        "Ġs",
        "ix"
      ],
      [
        "Ġl",
        "ight"
      ],
      [
        "est",
        "s"
      ],
      [
        "Ġà¤ī",
        "à¤¸à¤ķ"
      ],
      [
        "ru",
        "ction"
      ],
      [
        "ru",
        "ba"
      ],
      [
        "Ġspe",
        "cial"
      ],
      [
        "Ġdef",
        "e"
      ],
      [
        "Ġà¤Ĳ",
        "à¤¸"
      ],
      [
        "1",
        "5"
      ],
      [
        "A",
        "s"
      ],
      [
        "R",
        "e"
      ],
      [
        "s",
        "elf"
      ],
      [
        "Ġ",
        "âĢ"
      ],
      [
        "Ġs",
        "ent"
      ],
      [
        "ĠA",
        "ug"
      ],
      [
        "Ġm",
        "outh"
      ],
      [
        "ĠB",
        "r"
      ],
      [
        "Ġse",
        "e"
      ],
      [
        "ph",
        "ib"
      ],
      [
        "Ġsh",
        "ould"
      ],
      [
        "oy",
        "al"
      ],
      [
        "Ġà¥§à¥",
        "¯à¥"
      ],
      [
        "d",
        "om"
      ],
      [
        "m",
        "en"
      ],
      [
        "ar",
        "ily"
      ],
      [
        "end",
        "ing"
      ],
      [
        "b",
        "y"
      ],
      [
        "u",
        "ary"
      ],
      [
        "Ġs",
        "w"
      ],
      [
        "Ġf",
        "ree"
      ],
      [
        "Ġre",
        "al"
      ],
      [
        "Ġre",
        "pl"
      ],
      [
        "ĠC",
        "omp"
      ],
      [
        "ĠM",
        "ay"
      ],
      [
        "ĠR",
        "iver"
      ],
      [
        "ĠN",
        "ov"
      ],
      [
        "Ġà¤Ĺ",
        "à¤Ī"
      ],
      [
        "Ġform",
        "ed"
      ],
      [
        "v",
        "ision"
      ],
      [
        "Ġ",
        "X"
      ],
      [
        "Ġc",
        "r"
      ],
      [
        "à¤µ",
        "à¤ª"
      ],
      [
        "us",
        "ed"
      ],
      [
        "ul",
        "f"
      ],
      [
        "ĠE",
        "d"
      ],
      [
        "Ġdo",
        "es"
      ],
      [
        "Ġair",
        "craft"
      ],
      [
        "à¤¯à¤µ",
        "à¤¸"
      ],
      [
        "S",
        "C"
      ],
      [
        "c",
        "o"
      ],
      [
        "ar",
        "ian"
      ],
      [
        "ot",
        "t"
      ],
      [
        "Ġà¤ħ",
        "à¤®"
      ],
      [
        "Ġà¤¨",
        "à¤Ĺà¤°"
      ],
      [
        "à¤¥",
        "à¤®"
      ],
      [
        "ĠAs",
        "s"
      ],
      [
        "Ġcult",
        "ure"
      ],
      [
        "ĠGe",
        "or"
      ],
      [
        "t",
        "in"
      ],
      [
        "u",
        "f"
      ],
      [
        "Ġà¤",
        "ĭ"
      ],
      [
        "Ġc",
        "ame"
      ],
      [
        "ut",
        "ch"
      ],
      [
        "Ġà¤¬",
        "à¤¢"
      ],
      [
        "Ġv",
        "ol"
      ],
      [
        "Ġme",
        "as"
      ],
      [
        "ark",
        "ovsky"
      ],
      [
        "Ġ17",
        "7"
      ],
      [
        "Ġbit",
        "umen"
      ],
      [
        "ĠAug",
        "ust"
      ],
      [
        "w",
        "h"
      ],
      [
        "ĠM",
        "oon"
      ],
      [
        "ac",
        "hed"
      ],
      [
        "Ġr",
        "ather"
      ],
      [
        "Ġen",
        "ergy"
      ],
      [
        "Ġele",
        "ments"
      ],
      [
        "ash",
        "ington"
      ],
      [
        "y",
        "pe"
      ],
      [
        "Ġw",
        "on"
      ],
      [
        "Ġd",
        "el"
      ],
      [
        "ist",
        "ory"
      ],
      [
        "av",
        "y"
      ],
      [
        "Ġr",
        "un"
      ],
      [
        "ĠO",
        "ther"
      ],
      [
        "Ġle",
        "ast"
      ],
      [
        "Ġmet",
        "al"
      ],
      [
        "Ġest",
        "im"
      ],
      [
        "Ġtechn",
        "ology"
      ],
      [
        "à¤ĸà¤¨",
        "à¤Ĭ"
      ],
      [
        "Ġcap",
        "ital"
      ],
      [
        "ĠTur",
        "k"
      ],
      [
        "h",
        "ib"
      ],
      [
        "Ġw",
        "id"
      ],
      [
        "Ġf",
        "ood"
      ],
      [
        "Ġm",
        "ust"
      ],
      [
        "Ġre",
        "n"
      ],
      [
        "à¤ľ",
        "à¤¸"
      ],
      [
        "Ġcre",
        "ated"
      ],
      [
        "inn",
        "ing"
      ],
      [
        "Ġt",
        "ake"
      ],
      [
        "an",
        "ish"
      ],
      [
        "ĠE",
        "x"
      ],
      [
        "ab",
        "or"
      ],
      [
        "Ġspe",
        "ak"
      ],
      [
        "ys",
        "is"
      ],
      [
        "Ġgener",
        "ally"
      ],
      [
        "ĠRe",
        "v"
      ],
      [
        "Ġorig",
        "inal"
      ],
      [
        "Ġla",
        "un"
      ],
      [
        "à¤°",
        "à¤²"
      ],
      [
        "à¤¨",
        "à¤¤"
      ],
      [
        "Ġb",
        "ir"
      ],
      [
        "av",
        "es"
      ],
      [
        "Ġnum",
        "er"
      ],
      [
        "Ġloc",
        "ated"
      ],
      [
        "anes",
        "e"
      ],
      [
        "Ġeng",
        "ine"
      ],
      [
        "a",
        "ction"
      ],
      [
        "Ġan",
        "ime"
      ],
      [
        "ar",
        "ies"
      ],
      [
        "Ġto",
        "p"
      ],
      [
        "us",
        "h"
      ],
      [
        "Ġar",
        "my"
      ],
      [
        "ĠK",
        "ing"
      ],
      [
        "Ġ",
        "ident"
      ],
      [
        "is",
        "on"
      ],
      [
        "Ġp",
        "a"
      ],
      [
        "ĠP",
        "res"
      ],
      [
        "oun",
        "ced"
      ],
      [
        "Ġac",
        "ross"
      ],
      [
        "Ġass",
        "ist"
      ],
      [
        "ĠPh",
        "il"
      ],
      [
        "l",
        "in"
      ],
      [
        "n",
        "ow"
      ],
      [
        "o",
        "red"
      ],
      [
        "at",
        "ter"
      ],
      [
        "Ġs",
        "um"
      ],
      [
        "Ġal",
        "phab"
      ],
      [
        "ĠW",
        "ashington"
      ],
      [
        "ac",
        "es"
      ],
      [
        "ill",
        "ed"
      ],
      [
        "ĠJ",
        "an"
      ],
      [
        "Ġthrough",
        "out"
      ],
      [
        "Ġfun",
        "ction"
      ],
      [
        "w",
        "ays"
      ],
      [
        "Ġà¤",
        "Ĭ"
      ],
      [
        "Ġà¤",
        "Ŀ"
      ],
      [
        "à¤¯",
        "à¤ª"
      ],
      [
        "Ġà¤ħ",
        "à¤¸"
      ],
      [
        "ĠL",
        "atin"
      ],
      [
        "our",
        "s"
      ],
      [
        "ric",
        "t"
      ],
      [
        "Ġpart",
        "s"
      ],
      [
        "Ġmod",
        "el"
      ],
      [
        "à¥¦",
        "à¥¦"
      ],
      [
        "Ġà¤ľà¤¨",
        "à¤¸"
      ],
      [
        "Ġà¤²à¤Ĺ",
        "à¤Ńà¤Ĺ"
      ],
      [
        "i",
        "om"
      ],
      [
        "Â",
        "°"
      ],
      [
        "he",
        "re"
      ],
      [
        "Ġp",
        "ri"
      ],
      [
        "ĠS",
        "w"
      ],
      [
        "ra",
        "y"
      ],
      [
        "op",
        "e"
      ],
      [
        "ĠR",
        "and"
      ],
      [
        "pt",
        "ember"
      ],
      [
        "Ġch",
        "oice"
      ],
      [
        "Ġar",
        "r"
      ],
      [
        "Ġrec",
        "ogn"
      ],
      [
        "ĠAlger",
        "ia"
      ],
      [
        "y",
        "m"
      ],
      [
        "Ġin",
        "f"
      ],
      [
        "Ġf",
        "ail"
      ],
      [
        "Ġg",
        "e"
      ],
      [
        "Ġg",
        "en"
      ],
      [
        "ort",
        "s"
      ],
      [
        "ĠO",
        "ne"
      ],
      [
        "Ġpl",
        "an"
      ],
      [
        "Ġfollow",
        "ed"
      ],
      [
        "Ġsch",
        "ol"
      ],
      [
        "Ġbro",
        "ad"
      ],
      [
        "E",
        "x"
      ],
      [
        "Ġ",
        ":"
      ],
      [
        "er",
        "y"
      ],
      [
        "is",
        "l"
      ],
      [
        "Ġh",
        "ow"
      ],
      [
        "à¤¡",
        "à¤²"
      ],
      [
        "à¤ļ",
        "à¤²"
      ],
      [
        "ĠAr",
        "my"
      ],
      [
        "ĠSe",
        "ptember"
      ],
      [
        "Ġeconom",
        "ic"
      ],
      [
        "ĠAndor",
        "ra"
      ],
      [
        "b",
        "e"
      ],
      [
        "r",
        "in"
      ],
      [
        "r",
        "ast"
      ],
      [
        "v",
        "iron"
      ],
      [
        "it",
        "ude"
      ],
      [
        "oc",
        "r"
      ],
      [
        "Ġhe",
        "alth"
      ],
      [
        "Ġimp",
        "ro"
      ],
      [
        "ĠConfeder",
        "ate"
      ],
      [
        "Ġoffic",
        "ial"
      ],
      [
        "b",
        "s"
      ],
      [
        "Ġa",
        "x"
      ],
      [
        "it",
        "tle"
      ],
      [
        "ar",
        "n"
      ],
      [
        "ĠA",
        "berdeen"
      ],
      [
        "ig",
        "u"
      ],
      [
        "à¤§",
        "à¤¨"
      ],
      [
        "Ġph",
        "ot"
      ],
      [
        "Ġ3",
        "0"
      ],
      [
        "Ġanim",
        "als"
      ],
      [
        "1",
        "1"
      ],
      [
        "k",
        "ara"
      ],
      [
        "he",
        "st"
      ],
      [
        "à¥ģ",
        "à¤Ĥ"
      ],
      [
        "ĠM",
        "arch"
      ],
      [
        "os",
        "p"
      ],
      [
        "à¤£",
        "à¤¨"
      ],
      [
        "ĠF",
        "rance"
      ],
      [
        "Ġex",
        "cept"
      ],
      [
        "Ġcons",
        "ist"
      ],
      [
        "Ġhim",
        "self"
      ],
      [
        "Ġcar",
        "bon"
      ],
      [
        "Ġcur",
        "rent"
      ],
      [
        "b",
        "o"
      ],
      [
        "l",
        "ike"
      ],
      [
        "m",
        "it"
      ],
      [
        "m",
        "ber"
      ],
      [
        "in",
        "ess"
      ],
      [
        "Ġan",
        "cient"
      ],
      [
        "Ġe",
        "p"
      ],
      [
        "ist",
        "ics"
      ],
      [
        "Ġle",
        "t"
      ],
      [
        "ond",
        "on"
      ],
      [
        "Ġcontin",
        "ued"
      ],
      [
        "Ġanthrop",
        "ology"
      ],
      [
        "idd",
        "le"
      ],
      [
        "à¥",
        "©"
      ],
      [
        "Ġw",
        "omen"
      ],
      [
        "Ġm",
        "er"
      ],
      [
        "le",
        "ction"
      ],
      [
        "ĠT",
        "e"
      ],
      [
        "pl",
        "es"
      ],
      [
        "19",
        "6"
      ],
      [
        "Ġrel",
        "ated"
      ],
      [
        "Ġsc",
        "ient"
      ],
      [
        "Ġne",
        "xt"
      ],
      [
        "ĠInd",
        "ian"
      ],
      [
        "Ġbu",
        "ilt"
      ],
      [
        "Ġthough",
        "t"
      ],
      [
        "i",
        "ers"
      ],
      [
        "u",
        "el"
      ],
      [
        "Ġm",
        "aking"
      ],
      [
        "à¤Ĺ",
        "à¤®"
      ],
      [
        "ce",
        "an"
      ],
      [
        "ist",
        "er"
      ],
      [
        "Ġcom",
        "mer"
      ],
      [
        "ect",
        "ed"
      ],
      [
        "Ġeconom",
        "y"
      ],
      [
        "Ġcamp",
        "aign"
      ],
      [
        "a",
        "i"
      ],
      [
        "Ġs",
        "at"
      ],
      [
        "Ġp",
        "ron"
      ],
      [
        "Ġp",
        "sych"
      ],
      [
        "Ġg",
        "ood"
      ],
      [
        "ĠCh",
        "ina"
      ],
      [
        "Ġ201",
        "0"
      ],
      [
        "Ġpres",
        "ident"
      ],
      [
        "Ġcharact",
        "ers"
      ],
      [
        "Ġa",
        "ver"
      ],
      [
        "Ġc",
        "al"
      ],
      [
        "ĠA",
        "ruba"
      ],
      [
        "ol",
        "s"
      ],
      [
        "ce",
        "mber"
      ],
      [
        "ĠW",
        "estern"
      ],
      [
        "Ġà¤ī",
        "à¤ļ"
      ],
      [
        "ĠCh",
        "ar"
      ],
      [
        "Ġphilos",
        "ophy"
      ],
      [
        "Ġsing",
        "le"
      ],
      [
        "1",
        "4"
      ],
      [
        "n",
        "ot"
      ],
      [
        "à¥",
        "¬"
      ],
      [
        "à¤¨",
        "à¤¸"
      ],
      [
        "ĠM",
        "any"
      ],
      [
        "ĠP",
        "e"
      ],
      [
        "ĠW",
        "est"
      ],
      [
        "ĠF",
        "ran"
      ],
      [
        "ĠD",
        "utch"
      ],
      [
        "ĠJ",
        "une"
      ],
      [
        "Ġcont",
        "rib"
      ],
      [
        "Ġsc",
        "ript"
      ],
      [
        "Ġsy",
        "mb"
      ],
      [
        "Ġmean",
        "ing"
      ],
      [
        "Ġastero",
        "ids"
      ],
      [
        "à¥",
        "®"
      ],
      [
        "in",
        "ct"
      ],
      [
        "Ġd",
        "ial"
      ],
      [
        "ra",
        "g"
      ],
      [
        "ra",
        "w"
      ],
      [
        "Ġà¤°",
        "à¤ĸ"
      ],
      [
        "Ġsl",
        "avery"
      ],
      [
        "hem",
        "at"
      ],
      [
        "Ġtem",
        "per"
      ],
      [
        "1",
        "6"
      ],
      [
        "à¥",
        "Ń"
      ],
      [
        "in",
        "o"
      ],
      [
        "Ġc",
        "hem"
      ],
      [
        "ĠT",
        "ro"
      ],
      [
        "el",
        "es"
      ],
      [
        "Ġth",
        "us"
      ],
      [
        "Ġn",
        "orthern"
      ],
      [
        "un",
        "ar"
      ],
      [
        "Ġal",
        "t"
      ],
      [
        "ĠL",
        "ondon"
      ],
      [
        "ĠDe",
        "cember"
      ],
      [
        "ĠWh",
        "ile"
      ],
      [
        "Ġtro",
        "ops"
      ],
      [
        "P",
        "h"
      ],
      [
        "Ã",
        "¼"
      ],
      [
        "Ġin",
        "ternational"
      ],
      [
        "ĠT",
        "arkovsky"
      ],
      [
        "ĠK",
        "h"
      ],
      [
        "ie",
        "f"
      ],
      [
        "Ġacc",
        "ount"
      ],
      [
        "ste",
        "ad"
      ],
      [
        "ĠAnatol",
        "ia"
      ],
      [
        "a",
        "ugh"
      ],
      [
        "c",
        "le"
      ],
      [
        "Ġ",
        "ess"
      ],
      [
        "à¥",
        "ª"
      ],
      [
        "Ġa",
        "ge"
      ],
      [
        "Ġp",
        "ost"
      ],
      [
        "Ġe",
        "ast"
      ],
      [
        "Ġl",
        "ive"
      ],
      [
        "ĠS",
        "he"
      ],
      [
        "ĠC",
        "al"
      ],
      [
        "ĠE",
        "ast"
      ],
      [
        "ĠG",
        "eneral"
      ],
      [
        "Ġv",
        "ow"
      ],
      [
        "Ġsu",
        "per"
      ],
      [
        "ĠN",
        "e"
      ],
      [
        "Ġà¤Ĩ",
        "à¤ľ"
      ],
      [
        "ie",
        "v"
      ],
      [
        "Ġsub",
        "ject"
      ],
      [
        "à¤ĩ",
        "à¤¨"
      ],
      [
        "Ġposs",
        "ible"
      ],
      [
        "rog",
        "en"
      ],
      [
        "Ġnov",
        "el"
      ],
      [
        "Ġrese",
        "arch"
      ],
      [
        "s",
        "on"
      ],
      [
        "u",
        "pp"
      ],
      [
        "Ġt",
        "ype"
      ],
      [
        "er",
        "ing"
      ],
      [
        "Ġc",
        "apt"
      ],
      [
        "Ġc",
        "ertain"
      ],
      [
        "Ġw",
        "est"
      ],
      [
        "ic",
        "ated"
      ],
      [
        "il",
        "ies"
      ],
      [
        "Ġth",
        "ird"
      ],
      [
        "ĠB",
        "o"
      ],
      [
        "ĠG",
        "reat"
      ],
      [
        "Ġar",
        "ch"
      ],
      [
        "Ġmost",
        "ly"
      ],
      [
        "Ġcomm",
        "and"
      ],
      [
        "Ġhig",
        "her"
      ],
      [
        "Ġconc",
        "ern"
      ],
      [
        "i",
        "ol"
      ],
      [
        "Ġ",
        "["
      ],
      [
        "Ġt",
        "w"
      ],
      [
        "at",
        "ors"
      ],
      [
        "Ġc",
        "ities"
      ],
      [
        "Ġf",
        "ather"
      ],
      [
        "ce",
        "ed"
      ],
      [
        "Ġcon",
        "cept"
      ],
      [
        "ĠH",
        "ar"
      ],
      [
        "ĠD",
        "av"
      ],
      [
        "ound",
        "s"
      ],
      [
        "Ġsc",
        "ience"
      ],
      [
        "Ġtra",
        "de"
      ],
      [
        "Ġsy",
        "n"
      ],
      [
        "Ġem",
        "ploy"
      ],
      [
        "Ġexp",
        "ress"
      ],
      [
        "Ġproduct",
        "s"
      ],
      [
        "Ġrece",
        "ived"
      ],
      [
        ".",
        ")"
      ],
      [
        "à¤°",
        "à¤¨"
      ],
      [
        "à¥Ģ",
        "-"
      ],
      [
        "Ġd",
        "est"
      ],
      [
        "Ġà¤¸",
        "à¤¨"
      ],
      [
        "Ġal",
        "most"
      ],
      [
        "ĠP",
        "ol"
      ],
      [
        "est",
        "ed"
      ],
      [
        "Ġatt",
        "ack"
      ],
      [
        "Ġrelations",
        "hip"
      ],
      [
        "A",
        "meric"
      ],
      [
        "m",
        "illion"
      ],
      [
        "p",
        "ite"
      ],
      [
        "r",
        "ated"
      ],
      [
        "Ã",
        "¶"
      ],
      [
        "Ġf",
        "ar"
      ],
      [
        "Ġf",
        "ind"
      ],
      [
        "Ġp",
        "osition"
      ],
      [
        "Ġà¤ª",
        "à¤¤"
      ],
      [
        "Ġg",
        "u"
      ],
      [
        "ad",
        "es"
      ],
      [
        "ĠB",
        "attle"
      ],
      [
        "ĠO",
        "ct"
      ],
      [
        "Ġastero",
        "id"
      ],
      [
        "Ġindust",
        "ry"
      ],
      [
        "Ġprev",
        "ious"
      ],
      [
        "d",
        "itions"
      ],
      [
        "l",
        "ing"
      ],
      [
        "à¤°",
        "à¤¥à¤®"
      ],
      [
        "re",
        "am"
      ],
      [
        "Ġf",
        "urther"
      ],
      [
        "Ġm",
        "other"
      ],
      [
        "ur",
        "ies"
      ],
      [
        "ĠD",
        "uring"
      ],
      [
        "ap",
        "s"
      ],
      [
        "Ġy",
        "oun"
      ],
      [
        "19",
        "9"
      ],
      [
        "Ġalgorith",
        "m"
      ],
      [
        "8",
        "0"
      ],
      [
        "o",
        "ber"
      ],
      [
        "in",
        "k"
      ],
      [
        "Ġf",
        "all"
      ],
      [
        "Ġp",
        "ain"
      ],
      [
        "am",
        "ent"
      ],
      [
        "ul",
        "a"
      ],
      [
        "ĠD",
        "el"
      ],
      [
        "Ġr",
        "ate"
      ],
      [
        "Ġcl",
        "os"
      ],
      [
        "ĠIt",
        "al"
      ],
      [
        "ob",
        "al"
      ],
      [
        "Ġpol",
        "ic"
      ],
      [
        "fic",
        "ult"
      ],
      [
        "viron",
        "ment"
      ],
      [
        "b",
        "igu"
      ],
      [
        "is",
        "ing"
      ],
      [
        "Ġof",
        "fer"
      ],
      [
        "Ġf",
        "em"
      ],
      [
        "Ġm",
        "or"
      ],
      [
        "um",
        "b"
      ],
      [
        "à¥ĭà¤Ĥ",
        ","
      ],
      [
        "Ġ19",
        "0"
      ],
      [
        "Ġad",
        "op"
      ],
      [
        "Ġdif",
        "ficult"
      ],
      [
        "ĠInd",
        "ia"
      ],
      [
        "ĠOct",
        "ober"
      ],
      [
        "ri",
        "a"
      ],
      [
        "ĠIn",
        "stitute"
      ],
      [
        "Ġà¤¶",
        "à¤¤"
      ],
      [
        "Ġr",
        "ange"
      ],
      [
        "ĠAl",
        "though"
      ],
      [
        "Ġev",
        "idence"
      ],
      [
        "Ġcult",
        "ural"
      ],
      [
        "Ġphilos",
        "op"
      ],
      [
        "ĠAfric",
        "an"
      ],
      [
        "Ġdet",
        "erm"
      ],
      [
        "Ġinflu",
        "ence"
      ],
      [
        "Ġreport",
        "ed"
      ],
      [
        "Ġhal",
        "f"
      ],
      [
        "ĠJan",
        "uary"
      ],
      [
        "Ġc",
        "ir"
      ],
      [
        "Ġf",
        "ri"
      ],
      [
        "ĠC",
        "ourt"
      ],
      [
        "Ġà¤ľ",
        "à¤¹"
      ],
      [
        "Ġcomp",
        "an"
      ],
      [
        "Ġ201",
        "1"
      ],
      [
        "lect",
        "ed"
      ],
      [
        "Ġdisc",
        "overed"
      ],
      [
        "Ġincre",
        "ased"
      ],
      [
        "ĠWill",
        "iam"
      ],
      [
        "l",
        "im"
      ],
      [
        "Ġ",
        "+"
      ],
      [
        "as",
        "ter"
      ],
      [
        "Ġfor",
        "ce"
      ],
      [
        "ĠI",
        "I"
      ],
      [
        "Ġ2",
        "1"
      ],
      [
        "Ġv",
        "ict"
      ],
      [
        "ard",
        "s"
      ],
      [
        "Ġab",
        "s"
      ],
      [
        "Ġ201",
        "4"
      ],
      [
        "Ġterrit",
        "ory"
      ],
      [
        "Ġassoc",
        "iated"
      ],
      [
        "ĠPort",
        "ug"
      ],
      [
        "T",
        "h"
      ],
      [
        "o",
        "le"
      ],
      [
        "Ġs",
        "outhern"
      ],
      [
        "ĠA",
[...]
